{
  "version": "1.0",
  "truncation": null,
  "padding": null,
  "added_tokens": [
    {
      "id": 0,
      "content": "[UNK]",
      "single_word": false,
      "lstrip": false,
      "rstrip": false,
      "normalized": false,
      "special": true
    },
    {
      "id": 1,
      "content": "[CLS]",
      "single_word": false,
      "lstrip": false,
      "rstrip": false,
      "normalized": false,
      "special": true
    },
    {
      "id": 2,
      "content": "[SEP]",
      "single_word": false,
      "lstrip": false,
      "rstrip": false,
      "normalized": false,
      "special": true
    },
    {
      "id": 3,
      "content": "[PAD]",
      "single_word": false,
      "lstrip": false,
      "rstrip": false,
      "normalized": false,
      "special": true
    },
    {
      "id": 4,
      "content": "[MASK]",
      "single_word": false,
      "lstrip": false,
      "rstrip": false,
      "normalized": false,
      "special": true
    }
  ],
  "normalizer": {
    "type": "BertNormalizer",
    "clean_text": true,
    "handle_chinese_chars": true,
    "strip_accents": null,
    "lowercase": false
  },
  "pre_tokenizer": {
    "type": "BertPreTokenizer"
  },
  "post_processor": {
    "type": "TemplateProcessing",
    "single": [
      {
        "SpecialToken": {
          "id": "[CLS]",
          "type_id": 0
        }
      },
      {
        "Sequence": {
          "id": "A",
          "type_id": 0
        }
      },
      {
        "SpecialToken": {
          "id": "[SEP]",
          "type_id": 0
        }
      }
    ],
    "pair": [
      {
        "SpecialToken": {
          "id": "[CLS]",
          "type_id": 0
        }
      },
      {
        "Sequence": {
          "id": "A",
          "type_id": 0
        }
      },
      {
        "SpecialToken": {
          "id": "[SEP]",
          "type_id": 0
        }
      },
      {
        "Sequence": {
          "id": "B",
          "type_id": 1
        }
      },
      {
        "SpecialToken": {
          "id": "[SEP]",
          "type_id": 1
        }
      }
    ],
    "special_tokens": {
      "[CLS]": {
        "id": "[CLS]",
        "ids": [
          1
        ],
        "tokens": [
          "[CLS]"
        ]
      },
      "[SEP]": {
        "id": "[SEP]",
        "ids": [
          2
        ],
        "tokens": [
          "[SEP]"
        ]
      }
    }
  },
  "decoder": {
    "type": "WordPiece",
    "prefix": "##",
    "cleanup": true
  },
  "model": {
    "type": "WordPiece",
    "unk_token": "[UNK]",
    "continuing_subword_prefix": "##",
    "max_input_chars_per_word": 100,
    "vocab": {
      "[UNK]": 0,
      "[CLS]": 1,
      "[SEP]": 2,
      "[PAD]": 3,
      "[MASK]": 4,
      "!": 5,
      "\"": 6,
      "&": 7,
      "'": 8,
      "(": 9,
      ")": 10,
      ",": 11,
      "-": 12,
      ".": 13,
      "/": 14,
      "0": 15,
      "1": 16,
      "2": 17,
      "3": 18,
      "4": 19,
      "5": 20,
      "6": 21,
      "7": 22,
      "8": 23,
      "9": 24,
      ":": 25,
      ";": 26,
      "?": 27,
      "A": 28,
      "B": 29,
      "C": 30,
      "D": 31,
      "E": 32,
      "F": 33,
      "G": 34,
      "H": 35,
      "I": 36,
      "J": 37,
      "K": 38,
      "L": 39,
      "M": 40,
      "N": 41,
      "O": 42,
      "P": 43,
      "R": 44,
      "S": 45,
      "T": 46,
      "U": 47,
      "V": 48,
      "W": 49,
      "Y": 50,
      "Z": 51,
      "`": 52,
      "b": 53,
      "d": 54,
      "v": 55,
      "w": 56,
      "z": 57,
      "«": 58,
      "»": 59,
      "–": 60,
      "‘": 61,
      "’": 62,
      "“": 63,
      "”": 64,
      "##!": 65,
      "##\"": 66,
      "##&": 67,
      "##'": 68,
      "##(": 69,
      "##)": 70,
      "##,": 71,
      "##-": 72,
      "##.": 73,
      "##/": 74,
      "##0": 75,
      "##1": 76,
      "##2": 77,
      "##3": 78,
      "##4": 79,
      "##5": 80,
      "##6": 81,
      "##7": 82,
      "##8": 83,
      "##9": 84,
      "##:": 85,
      "##;": 86,
      "##?": 87,
      "##A": 88,
      "##B": 89,
      "##C": 90,
      "##D": 91,
      "##E": 92,
      "##F": 93,
      "##G": 94,
      "##H": 95,
      "##I": 96,
      "##J": 97,
      "##K": 98,
      "##L": 99,
      "##M": 100,
      "##N": 101,
      "##O": 102,
      "##P": 103,
      "##R": 104,
      "##S": 105,
      "##T": 106,
      "##U": 107,
      "##V": 108,
      "##W": 109,
      "##Y": 110,
      "##Z": 111,
      "##`": 112,
      "##a": 113,
      "##b": 114,
      "##c": 115,
      "##d": 116,
      "##e": 117,
      "##f": 118,
      "##g": 119,
      "##h": 120,
      "##i": 121,
      "##j": 122,
      "##k": 123,
      "##l": 124,
      "##m": 125,
      "##n": 126,
      "##o": 127,
      "##p": 128,
      "##q": 129,
      "##r": 130,
      "##s": 131,
      "##t": 132,
      "##u": 133,
      "##v": 134,
      "##w": 135,
      "##x": 136,
      "##y": 137,
      "##z": 138,
      "##«": 139,
      "##»": 140,
      "##è": 141,
      "##é": 142,
      "##ë": 143,
      "##ï": 144,
      "##ó": 145,
      "##ö": 146,
      "##–": 147,
      "##‘": 148,
      "##’": 149,
      "##“": 150,
      "##”": 151,
      "##„": 152,
      "...": 153,
      "00": 154,
      "000": 155,
      "00u": 156,
      "01": 157,
      "02": 158,
      "020": 159,
      "03": 160,
      "04": 161,
      "05": 162,
      "050": 163,
      "06": 164,
      "07": 165,
      "08": 166,
      "09": 167,
      "0900": 168,
      "10": 169,
      "100": 170,
      "1000": 171,
      "101": 172,
      "102": 173,
      "103": 174,
      "104": 175,
      "105": 176,
      "106": 177,
      "107": 178,
      "108": 179,
      "109": 180,
      "11": 181,
      "110": 182,
      "111": 183,
      "112": 184,
      "115": 185,
      "116": 186,
      "117": 187,
      "118": 188,
      "12": 189,
      "120": 190,
      "1200": 191,
      "121": 192,
      "124": 193,
      "125": 194,
      "126": 195,
      "127": 196,
      "128": 197,
      "13": 198,
      "130": 199,
      "1300": 200,
      "135": 201,
      "136": 202,
      "137": 203,
      "14": 204,
      "140": 205,
      "1400": 206,
      "144": 207,
      "145": 208,
      "15": 209,
      "150": 210,
      "1500": 211,
      "155": 212,
      "157": 213,
      "16": 214,
      "160": 215,
      "1600": 216,
      "165": 217,
      "167": 218,
      "168": 219,
      "17": 220,
      "170": 221,
      "1700": 222,
      "175": 223,
      "176": 224,
      "177": 225,
      "178": 226,
      "1795": 227,
      "17u": 228,
      "18": 229,
      "180": 230,
      "1800": 231,
      "1814": 232,
      "1830": 233,
      "1831": 234,
      "1835": 235,
      "1836": 236,
      "1837": 237,
      "1838": 238,
      "1839": 239,
      "1840": 240,
      "1841": 241,
      "1843": 242,
      "1844": 243,
      "1847": 244,
      "1850": 245,
      "1854": 246,
      "1858": 247,
      "1863": 248,
      "1864": 249,
      "1868": 250,
      "1869": 251,
      "1871": 252,
      "1874": 253,
      "1875": 254,
      "1876": 255,
      "1878": 256,
      "1879": 257,
      "1880": 258,
      "1881": 259,
      "1884": 260,
      "1885": 261,
      "1886": 262,
      "1887": 263,
      "1888": 264,
      "1889": 265,
      "1890": 266,
      "1891": 267,
      "1892": 268,
      "1893": 269,
      "1894": 270,
      "1895": 271,
      "1896": 272,
      "1897": 273,
      "1898": 274,
      "1899": 275,
      "19": 276,
      "190": 277,
      "1900": 278,
      "1901": 279,
      "1902": 280,
      "1903": 281,
      "1904": 282,
      "1905": 283,
      "1906": 284,
      "1907": 285,
      "1908": 286,
      "1909": 287,
      "1910": 288,
      "1911": 289,
      "1912": 290,
      "1913": 291,
      "1914": 292,
      "1915": 293,
      "1916": 294,
      "1917": 295,
      "1918": 296,
      "1919": 297,
      "1920": 298,
      "1921": 299,
      "1922": 300,
      "1923": 301,
      "1924": 302,
      "1925": 303,
      "1926": 304,
      "1927": 305,
      "1928": 306,
      "1929": 307,
      "1930": 308,
      "1931": 309,
      "1932": 310,
      "1933": 311,
      "1934": 312,
      "1935": 313,
      "1936": 314,
      "1937": 315,
      "1938": 316,
      "1939": 317,
      "1940": 318,
      "1941": 319,
      "1942": 320,
      "1943": 321,
      "1944": 322,
      "1945": 323,
      "1946": 324,
      "1947": 325,
      "1948": 326,
      "1949": 327,
      "1950": 328,
      "1951": 329,
      "1952": 330,
      "1953": 331,
      "1954": 332,
      "1955": 333,
      "1956": 334,
      "1957": 335,
      "1958": 336,
      "1959": 337,
      "1960": 338,
      "1961": 339,
      "1962": 340,
      "1963": 341,
      "1964": 342,
      "1965": 343,
      "1966": 344,
      "1967": 345,
      "1968": 346,
      "1969": 347,
      "1970": 348,
      "1971": 349,
      "1972": 350,
      "1973": 351,
      "1974": 352,
      "1975": 353,
      "1976": 354,
      "1977": 355,
      "1978": 356,
      "1979": 357,
      "1980": 358,
      "1981": 359,
      "1982": 360,
      "1983": 361,
      "1984": 362,
      "1985": 363,
      "1986": 364,
      "1987": 365,
      "1988": 366,
      "1989": 367,
      "1990": 368,
      "1991": 369,
      "1992": 370,
      "1993": 371,
      "1994": 372,
      "1995": 373,
      "1996": 374,
      "1997": 375,
      "1998": 376,
      "1999": 377,
      "19de": 378,
      "20": 379,
      "200": 380,
      "2000": 381,
      "2001": 382,
      "2002": 383,
      "2003": 384,
      "2004": 385,
      "2005": 386,
      "2006": 387,
      "2007": 388,
      "2008": 389,
      "2009": 390,
      "2010": 391,
      "2011": 392,
      "2012": 393,
      "2013": 394,
      "2014": 395,
      "2015": 396,
      "2016": 397,
      "2017": 398,
      "2018": 399,
      "2019": 400,
      "2020": 401,
      "2021": 402,
      "20ste": 403,
      "21": 404,
      "210": 405,
      "22": 406,
      "220": 407,
      "225": 408,
      "23": 409,
      "230": 410,
      "24": 411,
      "240": 412,
      "25": 413,
      "250": 414,
      "2500": 415,
      "26": 416,
      "260": 417,
      "27": 418,
      "270": 419,
      "28": 420,
      "280": 421,
      "29": 422,
      "30": 423,
      "300": 424,
      "3000": 425,
      "31": 426,
      "32": 427,
      "320": 428,
      "33": 429,
      "34": 430,
      "35": 431,
      "350": 432,
      "3500": 433,
      "36": 434,
      "360": 435,
      "37": 436,
      "38": 437,
      "39": 438,
      "3D": 439,
      "40": 440,
      "400": 441,
      "4000": 442,
      "41": 443,
      "42": 444,
      "43": 445,
      "44": 446,
      "45": 447,
      "450": 448,
      "46": 449,
      "47": 450,
      "48": 451,
      "480": 452,
      "49": 453,
      "4x100": 454,
      "50": 455,
      "500": 456,
      "5000": 457,
      "51": 458,
      "52": 459,
      "53": 460,
      "538": 461,
      "54": 462,
      "55": 463,
      "550": 464,
      "56": 465,
      "57": 466,
      "58": 467,
      "59": 468,
      "60": 469,
      "600": 470,
      "6000": 471,
      "61": 472,
      "62": 473,
      "63": 474,
      "64": 475,
      "65": 476,
      "650": 477,
      "66": 478,
      "67": 479,
      "68": 480,
      "69": 481,
      "70": 482,
      "700": 483,
      "7000": 484,
      "71": 485,
      "72": 486,
      "73": 487,
      "74": 488,
      "747": 489,
      "75": 490,
      "750": 491,
      "76": 492,
      "77": 493,
      "78": 494,
      "79": 495,
      "80": 496,
      "800": 497,
      "8000": 498,
      "81": 499,
      "82": 500,
      "83": 501,
      "84": 502,
      "85": 503,
      "850": 504,
      "86": 505,
      "87": 506,
      "88": 507,
      "89": 508,
      "90": 509,
      "900": 510,
      "9000": 511,
      "91": 512,
      "92": 513,
      "93": 514,
      "94": 515,
      "95": 516,
      "96": 517,
      "97": 518,
      "98": 519,
      "99": 520,
      "A1": 521,
      "A2": 522,
      "A4": 523,
      "AA": 524,
      "AB": 525,
      "ABC": 526,
      "ABN": 527,
      "AC": 528,
      "ACV": 529,
      "AD": 530,
      "ADO": 531,
      "AE": 532,
      "AFC": 533,
      "AFM": 534,
      "AFP": 535,
      "AG": 536,
      "ALLE": 537,
      "ALS": 538,
      "AM": 539,
      "AMSTERDAM": 540,
      "ANC": 541,
      "ANP": 542,
      "ANTWERPEN": 543,
      "ANW": 544,
      "AOW": 545,
      "AP": 546,
      "APPLAUS": 547,
      "AS": 548,
      "ATP": 549,
      "AVRO": 550,
      "AZ": 551,
      "Aa": 552,
      "Aal": 553,
      "Aalbers": 554,
      "Aalsmeer": 555,
      "Aalst": 556,
      "Aalter": 557,
      "Aan": 558,
      "Aandacht": 559,
      "Aangezi": 560,
      "Aanvaard": 561,
      "Aanvankelijk": 562,
      "Aar": 563,
      "Aard": 564,
      "Aarde": 565,
      "Aardig": 566,
      "Aaron": 567,
      "Aarschot": 568,
      "Aart": 569,
      "Aartsen": 570,
      "Ab": 571,
      "Abb": 572,
      "Abbas": 573,
      "Abbey": 574,
      "Abdel": 575,
      "Abdij": 576,
      "Abdul": 577,
      "Abdullah": 578,
      "Abe": 579,
      "Abel": 580,
      "Aberdeen": 581,
      "Abigail": 582,
      "Abonnee": 583,
      "About": 584,
      "Abraham": 585,
      "Abram": 586,
      "Abu": 587,
      "Ac": 588,
      "Academ": 589,
      "Academie": 590,
      "Academisch": 591,
      "Acantho": 592,
      "Acc": 593,
      "Ach": 594,
      "Achilles": 595,
      "Achmea": 596,
      "Acht": 597,
      "Achter": 598,
      "Achterhoek": 599,
      "Achttien": 600,
      "Acker": 601,
      "Acri": 602,
      "Acro": 603,
      "Act": 604,
      "Acteur": 605,
      "Actie": 606,
      "Actrice": 607,
      "Ad": 608,
      "Ada": 609,
      "Adam": 610,
      "Adams": 611,
      "Addis": 612,
      "Adel": 613,
      "Adem": 614,
      "Adidas": 615,
      "Admiraal": 616,
      "Admiral": 617,
      "Adolf": 618,
      "Adri": 619,
      "Adriaan": 620,
      "Adriaanse": 621,
      "Adriaen": 622,
      "Adrian": 623,
      "Adventure": 624,
      "Advies": 625,
      "Advocaat": 626,
      "Advocaten": 627,
      "Aegon": 628,
      "Aero": 629,
      "Aerts": 630,
      "Aes": 631,
      "Af": 632,
      "Afdeling": 633,
      "Affair": 634,
      "Afgevaardigden": 635,
      "Afghaans": 636,
      "Afghan": 637,
      "Afghanistan": 638,
      "Afhankelijk": 639,
      "Africa": 640,
      "Afrika": 641,
      "Afrikaans": 642,
      "Afrikane": 643,
      "Afro": 644,
      "Afwezig": 645,
      "Ag": 646,
      "Aga": 647,
      "Agassi": 648,
      "Agatha": 649,
      "Agenc": 650,
      "Agent": 651,
      "Agenten": 652,
      "Agentschap": 653,
      "Agn": 654,
      "Agnes": 655,
      "Agost": 656,
      "Agr": 657,
      "Agu": 658,
      "Ah": 659,
      "Aha": 660,
      "Ahmad": 661,
      "Ahmed": 662,
      "Aho": 663,
      "Ahold": 664,
      "Ai": 665,
      "Aid": 666,
      "Air": 667,
      "Airbus": 668,
      "Airlines": 669,
      "Airport": 670,
      "Airways": 671,
      "Ajacied": 672,
      "Ajah": 673,
      "Ajax": 674,
      "Ak": 675,
      "Akademie": 676,
      "Akkoord": 677,
      "Akzo": 678,
      "Al": 679,
      "Ala": 680,
      "Alabam": 681,
      "Alain": 682,
      "Alan": 683,
      "Alaska": 684,
      "Alba": 685,
      "Albanes": 686,
      "Albanezen": 687,
      "Albanië": 688,
      "Albert": 689,
      "Alberto": 690,
      "Albrecht": 691,
      "Album": 692,
      "Alcohol": 693,
      "Aldus": 694,
      "Alec": 695,
      "Alejandr": 696,
      "Aleksandr": 697,
      "Aleksej": 698,
      "Aleppo": 699,
      "Alessandr": 700,
      "Alex": 701,
      "Alexander": 702,
      "Alexandr": 703,
      "Alexandrië": 704,
      "Alexis": 705,
      "Alfa": 706,
      "Alfons": 707,
      "Alfred": 708,
      "Algemeen": 709,
      "Algemene": 710,
      "Algerije": 711,
      "Algerijn": 712,
      "Ali": 713,
      "Alice": 714,
      "Alici": 715,
      "Alison": 716,
      "Alitalia": 717,
      "Alkmaar": 718,
      "All": 719,
      "Allah": 720,
      "Allan": 721,
      "Alle": 722,
      "Alleen": 723,
      "Allemaal": 724,
      "Allen": 725,
      "Alles": 726,
      "Alliance": 727,
      "Alliantie": 728,
      "Alma": 729,
      "Almelo": 730,
      "Almere": 731,
      "Alonso": 732,
      "Alpen": 733,
      "Alpes": 734,
      "Alpha": 735,
      "Alphen": 736,
      "Alphons": 737,
      "Als": 738,
      "Alsjeblieft": 739,
      "Alstublief": 740,
      "Alt": 741,
      "Altijd": 742,
      "Alva": 743,
      "Alweer": 744,
      "Alzheimer": 745,
      "Am": 746,
      "Ama": 747,
      "Amalia": 748,
      "Amanda": 749,
      "Amateur": 750,
      "Amazon": 751,
      "Ambacht": 752,
      "Amber": 753,
      "Ambrosi": 754,
      "Ambtenaren": 755,
      "Ameli": 756,
      "America": 757,
      "American": 758,
      "Amerika": 759,
      "Amerikaan": 760,
      "Amerikaans": 761,
      "Amerikaanse": 762,
      "Amerikanen": 763,
      "Amersfoort": 764,
      "Ami": 765,
      "Amnesty": 766,
      "Amo": 767,
      "Amphi": 768,
      "Amro": 769,
      "Amstel": 770,
      "Amstelveen": 771,
      "Amsterdam": 772,
      "Amsterdammer": 773,
      "Amsterdamse": 774,
      "Amy": 775,
      "An": 776,
      "Ana": 777,
      "Analist": 778,
      "Anatoli": 779,
      "Anciaux": 780,
      "And": 781,
      "Ander": 782,
      "Andere": 783,
      "Anderen": 784,
      "Anderhalf": 785,
      "Anderlecht": 786,
      "Anders": 787,
      "Anderson": 788,
      "Andre": 789,
      "Andrea": 790,
      "Andreas": 791,
      "Andrej": 792,
      "Andrew": 793,
      "Andri": 794,
      "Andries": 795,
      "Android": 796,
      "André": 797,
      "Andy": 798,
      "Ang": 799,
      "Angel": 800,
      "Angela": 801,
      "Angeles": 802,
      "Angelina": 803,
      "Angelo": 804,
      "Angelsaksisch": 805,
      "Angie": 806,
      "Angola": 807,
      "Angst": 808,
      "Angélique": 809,
      "Anhalt": 810,
      "Animal": 811,
      "Anis": 812,
      "Anit": 813,
      "Anja": 814,
      "Ank": 815,
      "Ankara": 816,
      "Ann": 817,
      "Anna": 818,
      "Annabel": 819,
      "Annan": 820,
      "Anne": 821,
      "Anneke": 822,
      "Annelies": 823,
      "Annemarie": 824,
      "Annette": 825,
      "Annie": 826,
      "Anouk": 827,
      "Ant": 828,
      "Antarctic": 829,
      "Anth": 830,
      "Antho": 831,
      "Anthony": 832,
      "Anti": 833,
      "Antillen": 834,
      "Antilliaans": 835,
      "Antillian": 836,
      "Antoine": 837,
      "Antoinette": 838,
      "Anton": 839,
      "Antonia": 840,
      "Antonio": 841,
      "Antonius": 842,
      "Antwerp": 843,
      "Antwerpen": 844,
      "Antwerpse": 845,
      "Antwoord": 846,
      "Ap": 847,
      "Apache": 848,
      "Apeldoorn": 849,
      "Aph": 850,
      "Apo": 851,
      "Apollo": 852,
      "App": 853,
      "Appel": 854,
      "Apple": 855,
      "April": 856,
      "Aqua": 857,
      "Aquita": 858,
      "Ar": 859,
      "Ara": 860,
      "Arab": 861,
      "Arabieren": 862,
      "Arabisch": 863,
      "Arabië": 864,
      "Arafat": 865,
      "Arane": 866,
      "Arb": 867,
      "Arbeid": 868,
      "Arbeids": 869,
      "Arc": 870,
      "Arcadi": 871,
      "Arcelor": 872,
      "Arch": 873,
      "Archeolog": 874,
      "Archief": 875,
      "Architect": 876,
      "Ard": 877,
      "Ardenne": 878,
      "Ardennen": 879,
      "ArenA": 880,
      "Arena": 881,
      "Arend": 882,
      "Arg": 883,
      "Argent": 884,
      "Argentijn": 885,
      "Argentijns": 886,
      "Argentinië": 887,
      "Ari": 888,
      "Arian": 889,
      "Arie": 890,
      "Ariel": 891,
      "Aristoteles": 892,
      "Arizona": 893,
      "Arj": 894,
      "Arjan": 895,
      "Ark": 896,
      "Arkon": 897,
      "Arkonid": 898,
      "Arm": 899,
      "Armand": 900,
      "Arme": 901,
      "Armeens": 902,
      "Armenië": 903,
      "Armstrong": 904,
      "Arn": 905,
      "Arnau": 906,
      "Arne": 907,
      "Arnhem": 908,
      "Arnhemse": 909,
      "Arno": 910,
      "Arnold": 911,
      "Arriva": 912,
      "Arrow": 913,
      "Arsenal": 914,
      "Art": 915,
      "Artemis": 916,
      "Arthur": 917,
      "Arti": 918,
      "Artikel": 919,
      "Arts": 920,
      "Artsen": 921,
      "Aruba": 922,
      "As": 923,
      "Ash": 924,
      "Ashle": 925,
      "Asil": 926,
      "Asp": 927,
      "Assa": 928,
      "Assad": 929,
      "Assche": 930,
      "Asse": 931,
      "Assen": 932,
      "Association": 933,
      "Astana": 934,
      "Aston": 935,
      "Astrid": 936,
      "Astro": 937,
      "At": 938,
      "Ath": 939,
      "Athene": 940,
      "Athletic": 941,
      "Atjeh": 942,
      "Atlan": 943,
      "Atlanta": 944,
      "Atlantic": 945,
      "Atlantis": 946,
      "Atlantische": 947,
      "Atlas": 948,
      "Atletic": 949,
      "Atletiek": 950,
      "Atlétic": 951,
      "Atta": 952,
      "Atto": 953,
      "Au": 954,
      "Aub": 955,
      "Audi": 956,
      "Audrey": 957,
      "August": 958,
      "Augustinus": 959,
      "Augustus": 960,
      "Aureli": 961,
      "Aurora": 962,
      "Aus": 963,
      "Auschwitz": 964,
      "Austin": 965,
      "Austr": 966,
      "Australian": 967,
      "Australisch": 968,
      "Australië": 969,
      "Australiër": 970,
      "Auto": 971,
      "Autoriteit": 972,
      "Auvergne": 973,
      "Av": 974,
      "Ava": 975,
      "Avalon": 976,
      "Ave": 977,
      "Avenue": 978,
      "Avi": 979,
      "Aviv": 980,
      "Avond": 981,
      "Avonds": 982,
      "Award": 983,
      "Awards": 984,
      "Ax": 985,
      "Axel": 986,
      "Ay": 987,
      "Ayl": 988,
      "Az": 989,
      "Azerbeidzjan": 990,
      "Aziatisch": 991,
      "Aziz": 992,
      "Azië": 993,
      "Aznar": 994,
      "B1": 995,
      "BA": 996,
      "BAM": 997,
      "BBC": 998,
      "BE": 999,
      "BEF": 1000,
      "BEL": 1001,
      "BER": 1002,
      "BIJLAGE": 1003,
      "BK": 1004,
      "BMW": 1005,
      "BNN": 1006,
      "BNP": 1007,
      "BO": 1008,
      "BR": 1009,
      "BRUSSEL": 1010,
      "BSE": 1011,
      "BTW": 1012,
      "BV": 1013,
      "Ba": 1014,
      "Baal": 1015,
      "Baan": 1016,
      "Baar": 1017,
      "Baarle": 1018,
      "Baas": 1019,
      "Bab": 1020,
      "Babel": 1021,
      "Baby": 1022,
      "Babylon": 1023,
      "Bac": 1024,
      "Bach": 1025,
      "Back": 1026,
      "Bad": 1027,
      "Baden": 1028,
      "Baet": 1029,
      "Bag": 1030,
      "Bagdad": 1031,
      "Bah": 1032,
      "Bahama": 1033,
      "Bahn": 1034,
      "Bahrein": 1035,
      "Bailey": 1036,
      "Bak": 1037,
      "Baker": 1038,
      "Bakker": 1039,
      "Bal": 1040,
      "Baldwin": 1041,
      "Bali": 1042,
      "Balk": 1043,
      "Balkan": 1044,
      "Balkenende": 1045,
      "Ball": 1046,
      "Ballast": 1047,
      "Ballet": 1048,
      "Baltimore": 1049,
      "Baltisch": 1050,
      "Bam": 1051,
      "Ban": 1052,
      "Band": 1053,
      "Bang": 1054,
      "Bangkok": 1055,
      "Bangladesh": 1056,
      "Bank": 1057,
      "Banks": 1058,
      "Baptist": 1059,
      "Bar": 1060,
      "Bara": 1061,
      "Barac": 1062,
      "Barak": 1063,
      "Barb": 1064,
      "Barbara": 1065,
      "Barbie": 1066,
      "Barcelona": 1067,
      "Barclay": 1068,
      "Barend": 1069,
      "Barnard": 1070,
      "Barne": 1071,
      "Barneveld": 1072,
      "Baron": 1073,
      "Barr": 1074,
      "Barry": 1075,
      "Bart": 1076,
      "Bartholome": 1077,
      "Bas": 1078,
      "Basel": 1079,
      "Basil": 1080,
      "Baskenland": 1081,
      "Basketbal": 1082,
      "Baskisch": 1083,
      "Bast": 1084,
      "Basten": 1085,
      "Bastenaken": 1086,
      "Bat": 1087,
      "Bata": 1088,
      "Batavia": 1089,
      "Bates": 1090,
      "Bath": 1091,
      "Batt": 1092,
      "Battle": 1093,
      "Bau": 1094,
      "Baudet": 1095,
      "Bauer": 1096,
      "Bay": 1097,
      "Bayer": 1098,
      "Bayern": 1099,
      "Baz": 1100,
      "Bazel": 1101,
      "Be": 1102,
      "Bea": 1103,
      "Beach": 1104,
      "Beat": 1105,
      "Beatles": 1106,
      "Beatrice": 1107,
      "Beatrix": 1108,
      "Beau": 1109,
      "Beaumont": 1110,
      "Beauty": 1111,
      "Beck": 1112,
      "Becker": 1113,
      "Beckham": 1114,
      "Bed": 1115,
      "Bedank": 1116,
      "Bedenk": 1117,
      "Bedoel": 1118,
      "Bedrijf": 1119,
      "Bedrijven": 1120,
      "Beek": 1121,
      "Beeld": 1122,
      "Beenh": 1123,
      "Beer": 1124,
      "Beernem": 1125,
      "Beers": 1126,
      "Beerschot": 1127,
      "Beethoven": 1128,
      "Beg": 1129,
      "Begin": 1130,
      "Begrijp": 1131,
      "Beheer": 1132,
      "Beide": 1133,
      "Beieren": 1134,
      "Beiers": 1135,
      "Beijer": 1136,
      "Beijing": 1137,
      "Bek": 1138,
      "Bekaert": 1139,
      "Bekende": 1140,
      "Beker": 1141,
      "Bekijk": 1142,
      "Bel": 1143,
      "Belang": 1144,
      "Belangrijk": 1145,
      "Belasting": 1146,
      "Belastingdienst": 1147,
      "Beleggers": 1148,
      "Belfas": 1149,
      "Belg": 1150,
      "Belgacom": 1151,
      "Belgen": 1152,
      "Belgian": 1153,
      "Belgique": 1154,
      "Belgisch": 1155,
      "Belgische": 1156,
      "Belgium": 1157,
      "België": 1158,
      "Belgrado": 1159,
      "Bell": 1160,
      "Bella": 1161,
      "Belle": 1162,
      "Beloof": 1163,
      "Bemb": 1164,
      "Ben": 1165,
      "Beneden": 1166,
      "Benedict": 1167,
      "Benedictus": 1168,
      "Benelux": 1169,
      "Benfica": 1170,
      "Beng": 1171,
      "Benjamin": 1172,
      "Benn": 1173,
      "Bennett": 1174,
      "Bent": 1175,
      "Bepaald": 1176,
      "Ber": 1177,
      "Berber": 1178,
      "Berchem": 1179,
      "Berend": 1180,
      "Berg": 1181,
      "Bergen": 1182,
      "Berger": 1183,
      "Bergh": 1184,
      "Bergkamp": 1185,
      "Bericht": 1186,
      "Beringen": 1187,
      "Berk": 1188,
      "Berkel": 1189,
      "Berkeley": 1190,
      "Berlage": 1191,
      "Berlare": 1192,
      "Berlijn": 1193,
      "Berlijns": 1194,
      "Berlin": 1195,
      "Berlusconi": 1196,
      "Bern": 1197,
      "Bernadette": 1198,
      "Bernard": 1199,
      "Bernhard": 1200,
      "Bernie": 1201,
      "Beroep": 1202,
      "Berry": 1203,
      "Bert": 1204,
      "Bertens": 1205,
      "Berth": 1206,
      "Bertie": 1207,
      "Bertrand": 1208,
      "Bes": 1209,
      "Beschikking": 1210,
      "Besef": 1211,
      "Besluit": 1212,
      "Best": 1213,
      "Beste": 1214,
      "Bestuur": 1215,
      "Bet": 1216,
      "Beteken": 1217,
      "Beter": 1218,
      "Beth": 1219,
      "Bethlehem": 1220,
      "Betsy": 1221,
      "Bettin": 1222,
      "Betty": 1223,
      "Betuwe": 1224,
      "Beuk": 1225,
      "Beuningen": 1226,
      "Beurs": 1227,
      "Bever": 1228,
      "Beveren": 1229,
      "Beverl": 1230,
      "Bevrijdings": 1231,
      "Beweging": 1232,
      "Bewoners": 1233,
      "Bey": 1234,
      "Beyoncé": 1235,
      "Bezoekers": 1236,
      "Bi": 1237,
      "Bianc": 1238,
      "Biblio": 1239,
      "Bibliotheek": 1240,
      "Bie": 1241,
      "Bier": 1242,
      "Big": 1243,
      "Biggles": 1244,
      "Bij": 1245,
      "Bijbel": 1246,
      "Bijenkorf": 1247,
      "Bijlmer": 1248,
      "Bijna": 1249,
      "Bijvoorbeeld": 1250,
      "Bijzonder": 1251,
      "Bil": 1252,
      "Bilbao": 1253,
      "Bild": 1254,
      "Bill": 1255,
      "Billboard": 1256,
      "Billie": 1257,
      "Billy": 1258,
      "Bilt": 1259,
      "Bilzen": 1260,
      "Bin": 1261,
      "Binnen": 1262,
      "Binnenhof": 1263,
      "Binnenlands": 1264,
      "Bio": 1265,
      "Bir": 1266,
      "Bird": 1267,
      "Birgit": 1268,
      "Birma": 1269,
      "Birmingham": 1270,
      "Bis": 1271,
      "Bishop": 1272,
      "Bisschop": 1273,
      "Bjorn": 1274,
      "Björk": 1275,
      "Björn": 1276,
      "Bl": 1277,
      "Bla": 1278,
      "Black": 1279,
      "Blackburn": 1280,
      "Blair": 1281,
      "Blake": 1282,
      "Blanc": 1283,
      "Blanche": 1284,
      "Blank": 1285,
      "Blankenberge": 1286,
      "Blatte": 1287,
      "Blauw": 1288,
      "Blauwe": 1289,
      "Blaze": 1290,
      "Ble": 1291,
      "Bleek": 1292,
      "Blij": 1293,
      "Blijf": 1294,
      "Blijkbaar": 1295,
      "Blind": 1296,
      "Blo": 1297,
      "Block": 1298,
      "Bloed": 1299,
      "Bloem": 1300,
      "Bloemendaal": 1301,
      "Blok": 1302,
      "Blokker": 1303,
      "Blom": 1304,
      "Blond": 1305,
      "Blood": 1306,
      "Bloom": 1307,
      "Bloomberg": 1308,
      "Blu": 1309,
      "Blue": 1310,
      "Blues": 1311,
      "Bo": 1312,
      "Board": 1313,
      "Bob": 1314,
      "Bobby": 1315,
      "Bocholt": 1316,
      "Bock": 1317,
      "Bod": 1318,
      "Body": 1319,
      "Boe": 1320,
      "Boeck": 1321,
      "Boedapest": 1322,
      "Boeddha": 1323,
      "Boeing": 1324,
      "Boek": 1325,
      "Boekarest": 1326,
      "Boeken": 1327,
      "Boel": 1328,
      "Boer": 1329,
      "Boeren": 1330,
      "Bog": 1331,
      "Bogaert": 1332,
      "Boges": 1333,
      "Boh": 1334,
      "Bohemen": 1335,
      "Bois": 1336,
      "Bok": 1337,
      "Bol": 1338,
      "Bolivia": 1339,
      "Bolkestein": 1340,
      "Bolle": 1341,
      "Bologna": 1342,
      "Bom": 1343,
      "Bomb": 1344,
      "Bombay": 1345,
      "Bomhoff": 1346,
      "Bommel": 1347,
      "Bon": 1348,
      "Bonaparte": 1349,
      "Bond": 1350,
      "Bondgenoten": 1351,
      "Bondscoach": 1352,
      "Bondsdag": 1353,
      "Bondsrepubliek": 1354,
      "Bonn": 1355,
      "Bonnie": 1356,
      "Boo": 1357,
      "Booger": 1358,
      "Book": 1359,
      "Boom": 1360,
      "Boon": 1361,
      "Boonen": 1362,
      "Boonstra": 1363,
      "Boot": 1364,
      "Bor": 1365,
      "Bordeaux": 1366,
      "Borg": 1367,
      "Borgerhout": 1368,
      "Boris": 1369,
      "Born": 1370,
      "Bornem": 1371,
      "Borneo": 1372,
      "Borre": 1373,
      "Borsato": 1374,
      "Borst": 1375,
      "Bos": 1376,
      "Bosch": 1377,
      "Bosmans": 1378,
      "Bosnisch": 1379,
      "Bosnië": 1380,
      "Boss": 1381,
      "Bossche": 1382,
      "Boston": 1383,
      "Bosz": 1384,
      "Bot": 1385,
      "Botswana": 1386,
      "Bou": 1387,
      "Bouch": 1388,
      "Boudewijn": 1389,
      "Boulevard": 1390,
      "Bour": 1391,
      "Bourbon": 1392,
      "Bourg": 1393,
      "Bourgeois": 1394,
      "Bourgogne": 1395,
      "Bourgondië": 1396,
      "Bourne": 1397,
      "Boussoufa": 1398,
      "Bouterse": 1399,
      "Bouw": 1400,
      "Boven": 1401,
      "Bovendien": 1402,
      "Bow": 1403,
      "Bowie": 1404,
      "Bowl": 1405,
      "Box": 1406,
      "Boxtel": 1407,
      "Boy": 1408,
      "Boys": 1409,
      "Br": 1410,
      "Bra": 1411,
      "Braak": 1412,
      "Brabander": 1413,
      "Brabant": 1414,
      "Brabantse": 1415,
      "Brachy": 1416,
      "Brad": 1417,
      "Bradley": 1418,
      "Brahms": 1419,
      "Brain": 1420,
      "Brakel": 1421,
      "Bram": 1422,
      "Bran": 1423,
      "Brand": 1424,
      "Brandenburg": 1425,
      "Brandon": 1426,
      "Brandt": 1427,
      "Brandweer": 1428,
      "Brass": 1429,
      "Brasschaat": 1430,
      "Braun": 1431,
      "Bravo": 1432,
      "Braziliaan": 1433,
      "Braziliaans": 1434,
      "Brazilianen": 1435,
      "Brazilië": 1436,
      "Bre": 1437,
      "Break": 1438,
      "Brecht": 1439,
      "Breda": 1440,
      "Bredene": 1441,
      "Bree": 1442,
      "Brei": 1443,
      "Bremen": 1444,
      "Bremer": 1445,
      "Brenda": 1446,
      "Breng": 1447,
      "Brent": 1448,
      "Bres": 1449,
      "Bretagne": 1450,
      "Brett": 1451,
      "Breuk": 1452,
      "Bri": 1453,
      "Brian": 1454,
      "Bridge": 1455,
      "Brief": 1456,
      "Brig": 1457,
      "Brigade": 1458,
      "Brighton": 1459,
      "Brigitte": 1460,
      "Brin": 1461,
      "Brink": 1462,
      "Brinkhorst": 1463,
      "Brinkman": 1464,
      "Bristol": 1465,
      "Brit": 1466,
      "Britain": 1467,
      "Britanni": 1468,
      "Britis": 1469,
      "Britney": 1470,
      "Brits": 1471,
      "Britse": 1472,
      "Britt": 1473,
      "Brittannië": 1474,
      "Britten": 1475,
      "Bro": 1476,
      "Broadway": 1477,
      "Brod": 1478,
      "Broeck": 1479,
      "Broeder": 1480,
      "Broek": 1481,
      "Broer": 1482,
      "Brom": 1483,
      "Bron": 1484,
      "Bronckhorst": 1485,
      "Brood": 1486,
      "Brooklyn": 1487,
      "Brother": 1488,
      "Brothers": 1489,
      "Brouwer": 1490,
      "Brouwers": 1491,
      "Brown": 1492,
      "Bru": 1493,
      "Bruce": 1494,
      "Brug": 1495,
      "Brugge": 1496,
      "Brugse": 1497,
      "Bruijn": 1498,
      "Bruin": 1499,
      "Bruinsma": 1500,
      "Brun": 1501,
      "Bruno": 1502,
      "Brussel": 1503,
      "Brussels": 1504,
      "Brusselse": 1505,
      "Bruxelles": 1506,
      "Bruyn": 1507,
      "Bryan": 1508,
      "Bryn": 1509,
      "Bu": 1510,
      "Buch": 1511,
      "Buck": 1512,
      "Buckingham": 1513,
      "Bud": 1514,
      "Buddy": 1515,
      "Bueno": 1516,
      "Buffalo": 1517,
      "Bug": 1518,
      "Buggenhout": 1519,
      "Bui": 1520,
      "Building": 1521,
      "Buiten": 1522,
      "Buitenlands": 1523,
      "Bul": 1524,
      "Bulgaars": 1525,
      "Bulgarije": 1526,
      "Bull": 1527,
      "Bully": 1528,
      "Buma": 1529,
      "Bun": 1530,
      "Bundes": 1531,
      "Bundesliga": 1532,
      "Bur": 1533,
      "Burcht": 1534,
      "Bureau": 1535,
      "Burg": 1536,
      "Burgemeester": 1537,
      "Burger": 1538,
      "Burgeroorlog": 1539,
      "Burke": 1540,
      "Burn": 1541,
      "Burton": 1542,
      "Burundi": 1543,
      "Bus": 1544,
      "Bush": 1545,
      "Business": 1546,
      "Bussemaker": 1547,
      "Bussum": 1548,
      "But": 1549,
      "Butler": 1550,
      "Buur": 1551,
      "Buy": 1552,
      "Buzz": 1553,
      "By": 1554,
      "Byrne": 1555,
      "Byzantijnse": 1556,
      "Bé": 1557,
      "Bö": 1558,
      "C6": 1559,
      "C7": 1560,
      "C8": 1561,
      "CA": 1562,
      "CAO": 1563,
      "CBS": 1564,
      "CD": 1565,
      "CDA": 1566,
      "CDU": 1567,
      "CIA": 1568,
      "CNN": 1569,
      "CNV": 1570,
      "CO": 1571,
      "CO2": 1572,
      "COMMISSIE": 1573,
      "CPB": 1574,
      "CS": 1575,
      "CSU": 1576,
      "CVP": 1577,
      "Ca": 1578,
      "Cab": 1579,
      "Cabaret": 1580,
      "Cad": 1581,
      "Cadfael": 1582,
      "Cadillac": 1583,
      "Caesar": 1584,
      "Café": 1585,
      "Cal": 1586,
      "Calais": 1587,
      "Calgar": 1588,
      "California": 1589,
      "Californische": 1590,
      "Californië": 1591,
      "Call": 1592,
      "Calli": 1593,
      "Calv": 1594,
      "Calvin": 1595,
      "Cam": 1596,
      "Camar": 1597,
      "Camb": 1598,
      "Cambodja": 1599,
      "Cambridge": 1600,
      "Cambuur": 1601,
      "Camera": 1602,
      "Cameron": 1603,
      "Camill": 1604,
      "Camp": 1605,
      "Campbell": 1606,
      "Campert": 1607,
      "Campo": 1608,
      "Can": 1609,
      "Canada": 1610,
      "Canadees": 1611,
      "Canades": 1612,
      "Canadezen": 1613,
      "Canal": 1614,
      "Canarisch": 1615,
      "Cand": 1616,
      "Cannes": 1617,
      "Cant": 1618,
      "Canvas": 1619,
      "Cap": 1620,
      "Capelle": 1621,
      "Capital": 1622,
      "Capp": 1623,
      "Capri": 1624,
      "Captain": 1625,
      "Car": 1626,
      "Cara": 1627,
      "Carab": 1628,
      "Card": 1629,
      "Cardi": 1630,
      "Cardif": 1631,
      "Carel": 1632,
      "Carey": 1633,
      "Caribisch": 1634,
      "Carine": 1635,
      "Carl": 1636,
      "Carla": 1637,
      "Carlier": 1638,
      "Carlo": 1639,
      "Carlos": 1640,
      "Carmen": 1641,
      "Carol": 1642,
      "Carolina": 1643,
      "Caroline": 1644,
      "Carpenter": 1645,
      "Carr": 1646,
      "Carrefour": 1647,
      "Carrie": 1648,
      "Carré": 1649,
      "Carter": 1650,
      "Cas": 1651,
      "Casa": 1652,
      "Casablanca": 1653,
      "Casca": 1654,
      "Casey": 1655,
      "Cash": 1656,
      "Casino": 1657,
      "Casper": 1658,
      "Cassandra": 1659,
      "Cassi": 1660,
      "Cast": 1661,
      "Castel": 1662,
      "Castell": 1663,
      "Castilië": 1664,
      "Castle": 1665,
      "Castro": 1666,
      "Cat": 1667,
      "Catal": 1668,
      "Catalaans": 1669,
      "Catalonië": 1670,
      "Cate": 1671,
      "Cath": 1672,
      "Catharina": 1673,
      "Catherine": 1674,
      "Cathy": 1675,
      "Cato": 1676,
      "Cau": 1677,
      "Cav": 1678,
      "Caval": 1679,
      "Caïro": 1680,
      "Ce": 1681,
      "Cecil": 1682,
      "Cecilia": 1683,
      "Cees": 1684,
      "Cel": 1685,
      "Celeb": 1686,
      "Celest": 1687,
      "Celi": 1688,
      "Cell": 1689,
      "Celsius": 1690,
      "Celtic": 1691,
      "Cemetery": 1692,
      "Censu": 1693,
      "Cent": 1694,
      "Center": 1695,
      "Centraal": 1696,
      "Central": 1697,
      "Centrale": 1698,
      "Centre": 1699,
      "Centrum": 1700,
      "Century": 1701,
      "Cer": 1702,
      "Cera": 1703,
      "Cercle": 1704,
      "Cesar": 1705,
      "Ceulemans": 1706,
      "Ch": 1707,
      "Cha": 1708,
      "Chaim": 1709,
      "Chal": 1710,
      "Challenge": 1711,
      "Cham": 1712,
      "Chamber": 1713,
      "Champ": 1714,
      "Champagne": 1715,
      "Champions": 1716,
      "Championship": 1717,
      "Chan": 1718,
      "Chang": 1719,
      "Channel": 1720,
      "Chantal": 1721,
      "Chap": 1722,
      "Char": 1723,
      "Charl": 1724,
      "Charleroi": 1725,
      "Charles": 1726,
      "Charlie": 1727,
      "Charlotte": 1728,
      "Chase": 1729,
      "Chavez": 1730,
      "Che": 1731,
      "Chef": 1732,
      "Chelsea": 1733,
      "Chem": 1734,
      "Chen": 1735,
      "Cheney": 1736,
      "Cher": 1737,
      "Chester": 1738,
      "Chev": 1739,
      "Chevrolet": 1740,
      "Chi": 1741,
      "Chicago": 1742,
      "Chil": 1743,
      "Child": 1744,
      "Children": 1745,
      "Chileens": 1746,
      "Chili": 1747,
      "China": 1748,
      "Chinees": 1749,
      "Chinese": 1750,
      "Chinezen": 1751,
      "Chip": 1752,
      "Chirac": 1753,
      "Chiro": 1754,
      "Chloe": 1755,
      "Chlor": 1756,
      "Cho": 1757,
      "Chor": 1758,
      "Chr": 1759,
      "Chris": 1760,
      "Christ": 1761,
      "Christelijk": 1762,
      "ChristenUnie": 1763,
      "Christiaan": 1764,
      "Christian": 1765,
      "Christie": 1766,
      "Christina": 1767,
      "Christine": 1768,
      "Christmas": 1769,
      "Christoph": 1770,
      "Christophe": 1771,
      "Christopher": 1772,
      "Christus": 1773,
      "Chrys": 1774,
      "Chrysom": 1775,
      "Chu": 1776,
      "Chuck": 1777,
      "Church": 1778,
      "Churchill": 1779,
      "Ci": 1780,
      "Cicero": 1781,
      "Cijfer": 1782,
      "Cin": 1783,
      "Cind": 1784,
      "Cinema": 1785,
      "Cir": 1786,
      "Circuit": 1787,
      "Circus": 1788,
      "Citadel": 1789,
      "Citi": 1790,
      "Citroën": 1791,
      "City": 1792,
      "Civil": 1793,
      "Cla": 1794,
      "Claes": 1795,
      "Claeys": 1796,
      "Claire": 1797,
      "Clara": 1798,
      "Clare": 1799,
      "Clarenc": 1800,
      "Clark": 1801,
      "Classic": 1802,
      "Claude": 1803,
      "Claudi": 1804,
      "Claudia": 1805,
      "Claus": 1806,
      "Clay": 1807,
      "Cle": 1808,
      "Clemens": 1809,
      "Clement": 1810,
      "Cleopatra": 1811,
      "Cler": 1812,
      "Clerck": 1813,
      "Clercq": 1814,
      "Cleveland": 1815,
      "Cli": 1816,
      "Cliff": 1817,
      "Clijsters": 1818,
      "Clint": 1819,
      "Clinton": 1820,
      "Clo": 1821,
      "Clooney": 1822,
      "Close": 1823,
      "Cloud": 1824,
      "Club": 1825,
      "Co": 1826,
      "Coach": 1827,
      "Coalitie": 1828,
      "Coast": 1829,
      "Cob": 1830,
      "Coca": 1831,
      "Cock": 1832,
      "Coco": 1833,
      "Cocu": 1834,
      "Code": 1835,
      "Coen": 1836,
      "Cohen": 1837,
      "Col": 1838,
      "Cola": 1839,
      "Cole": 1840,
      "Colin": 1841,
      "Coll": 1842,
      "Collectie": 1843,
      "Collega": 1844,
      "College": 1845,
      "Collins": 1846,
      "Colo": 1847,
      "Colomb": 1848,
      "Colombia": 1849,
      "Colombiaans": 1850,
      "Colorado": 1851,
      "Colruyt": 1852,
      "Columb": 1853,
      "Columbia": 1854,
      "Columbus": 1855,
      "Com": 1856,
      "Comb": 1857,
      "Come": 1858,
      "Comedy": 1859,
      "Comité": 1860,
      "Command": 1861,
      "Commandant": 1862,
      "Comme": 1863,
      "Commer": 1864,
      "Commissaria": 1865,
      "Commissaris": 1866,
      "Commissie": 1867,
      "Commission": 1868,
      "Commun": 1869,
      "Communicatie": 1870,
      "Communication": 1871,
      "Communistisch": 1872,
      "Comp": 1873,
      "Compagnie": 1874,
      "Company": 1875,
      "Computer": 1876,
      "Comté": 1877,
      "Con": 1878,
      "Concert": 1879,
      "Concertgebouw": 1880,
      "Conclusie": 1881,
      "Concre": 1882,
      "Concurrent": 1883,
      "Conference": 1884,
      "Congo": 1885,
      "Congole": 1886,
      "Congres": 1887,
      "Coninck": 1888,
      "Conn": 1889,
      "Connecti": 1890,
      "Connexxion": 1891,
      "Connie": 1892,
      "Connor": 1893,
      "Conrad": 1894,
      "Cons": 1895,
      "Conserva": 1896,
      "Conservatieve": 1897,
      "Conservatorium": 1898,
      "Constance": 1899,
      "Constant": 1900,
      "Constantijn": 1901,
      "Constantinopel": 1902,
      "Consult": 1903,
      "Consumenten": 1904,
      "Contact": 1905,
      "Contador": 1906,
      "Continental": 1907,
      "Control": 1908,
      "Conventie": 1909,
      "Cook": 1910,
      "Cool": 1911,
      "Cooper": 1912,
      "Cop": 1913,
      "Copa": 1914,
      "Copp": 1915,
      "Coppens": 1916,
      "Cor": 1917,
      "Corb": 1918,
      "Cord": 1919,
      "Corinn": 1920,
      "Corn": 1921,
      "Cornelia": 1922,
      "Cornelis": 1923,
      "Cornelisse": 1924,
      "Cornelius": 1925,
      "Cornwall": 1926,
      "Corporation": 1927,
      "Corps": 1928,
      "Corsica": 1929,
      "Corus": 1930,
      "Cos": 1931,
      "Costa": 1932,
      "Costello": 1933,
      "Cott": 1934,
      "Cou": 1935,
      "Council": 1936,
      "Count": 1937,
      "Country": 1938,
      "Couperus": 1939,
      "Cour": 1940,
      "Courant": 1941,
      "Court": 1942,
      "Covenant": 1943,
      "Cox": 1944,
      "Cra": 1945,
      "Craig": 1946,
      "Cramb": 1947,
      "Cran": 1948,
      "Crawford": 1949,
      "Cre": 1950,
      "Creek": 1951,
      "Crem": 1952,
      "Crest": 1953,
      "Cri": 1954,
      "Cris": 1955,
      "Critici": 1956,
      "Cro": 1957,
      "Croo": 1958,
      "Cross": 1959,
      "Crow": 1960,
      "Cru": 1961,
      "Cruijff": 1962,
      "Cruise": 1963,
      "Cruz": 1964,
      "Crypt": 1965,
      "Crystal": 1966,
      "Cu": 1967,
      "Cuba": 1968,
      "Cubaans": 1969,
      "Cul": 1970,
      "Culture": 1971,
      "Culturel": 1972,
      "Cultuur": 1973,
      "Cup": 1974,
      "Cur": 1975,
      "Cura": 1976,
      "Curtis": 1977,
      "Cuyp": 1978,
      "Cy": 1979,
      "Cycl": 1980,
      "Cynthia": 1981,
      "Cyprian": 1982,
      "Cypriot": 1983,
      "Cyprus": 1984,
      "Cyr": 1985,
      "Cyrus": 1986,
      "D66": 1987,
      "DA": 1988,
      "DAT": 1989,
      "DC": 1990,
      "DDR": 1991,
      "DE": 1992,
      "DEN": 1993,
      "DI": 1994,
      "DJ": 1995,
      "DL": 1996,
      "DNA": 1997,
      "DOELPUNT": 1998,
      "DOOR": 1999,
      "DSM": 2000,
      "Da": 2001,
      "Daan": 2002,
      "Daar": 2003,
      "Daarmee": 2004,
      "Daarna": 2005,
      "Daarnaast": 2006,
      "Daarom": 2007,
      "Daarop": 2008,
      "Daarover": 2009,
      "Daartoe": 2010,
      "Daarvan": 2011,
      "Daarvoor": 2012,
      "Dacht": 2013,
      "Daems": 2014,
      "Dag": 2015,
      "Dagblad": 2016,
      "Dagelijks": 2017,
      "Dahl": 2018,
      "Dail": 2019,
      "Daimler": 2020,
      "Daisy": 2021,
      "Dakar": 2022,
      "Dakota": 2023,
      "Dal": 2024,
      "Dale": 2025,
      "Dall": 2026,
      "Dallas": 2027,
      "Dalton": 2028,
      "Dam": 2029,
      "Damascus": 2030,
      "Damien": 2031,
      "Damme": 2032,
      "Damon": 2033,
      "Damrak": 2034,
      "Dan": 2035,
      "Dance": 2036,
      "Daniel": 2037,
      "Daniël": 2038,
      "Dank": 2039,
      "Danny": 2040,
      "Danton": 2041,
      "Daphne": 2042,
      "Dar": 2043,
      "Darfur": 2044,
      "Dark": 2045,
      "Darwin": 2046,
      "Das": 2047,
      "Dat": 2048,
      "Dauphin": 2049,
      "Dave": 2050,
      "Davenport": 2051,
      "David": 2052,
      "Davids": 2053,
      "Davies": 2054,
      "Davis": 2055,
      "Davy": 2056,
      "Day": 2057,
      "De": 2058,
      "Dead": 2059,
      "Debbie": 2060,
      "Deborah": 2061,
      "December": 2062,
      "Decker": 2063,
      "Dedecker": 2064,
      "Deel": 2065,
      "Deelnemer": 2066,
      "Deerlijk": 2067,
      "Defensie": 2068,
      "Dehaene": 2069,
      "Deinze": 2070,
      "Deirdre": 2071,
      "Dekker": 2072,
      "Deleu": 2073,
      "Delft": 2074,
      "Delfzijl": 2075,
      "Delh": 2076,
      "Delhaize": 2077,
      "Delta": 2078,
      "Democra": 2079,
      "Democraten": 2080,
      "Democratie": 2081,
      "Democratisch": 2082,
      "Dender": 2083,
      "Dendermonde": 2084,
      "Denemarken": 2085,
      "Denis": 2086,
      "Denk": 2087,
      "Denkt": 2088,
      "Dennis": 2089,
      "Deportivo": 2090,
      "Derby": 2091,
      "Derde": 2092,
      "Derek": 2093,
      "Dergelijk": 2094,
      "Derksen": 2095,
      "Dertien": 2096,
      "Dertig": 2097,
      "Design": 2098,
      "Desmet": 2099,
      "Dessel": 2100,
      "Detroit": 2101,
      "Deurne": 2102,
      "Deutsche": 2103,
      "Deutschland": 2104,
      "Deventer": 2105,
      "Dewael": 2106,
      "Dexia": 2107,
      "Dexter": 2108,
      "Deze": 2109,
      "Dhabi": 2110,
      "Di": 2111,
      "Dia": 2112,
      "Diamant": 2113,
      "Diamond": 2114,
      "Diana": 2115,
      "Diane": 2116,
      "Dic": 2117,
      "Dicht": 2118,
      "Dichter": 2119,
      "Dick": 2120,
      "Dicran": 2121,
      "Didier": 2122,
      "Die": 2123,
      "Diederik": 2124,
      "Dienst": 2125,
      "Diep": 2126,
      "Dierckx": 2127,
      "Dieren": 2128,
      "Diest": 2129,
      "Dieter": 2130,
      "Dietrich": 2131,
      "Digital": 2132,
      "Dijk": 2133,
      "Dijksma": 2134,
      "Dijkstal": 2135,
      "Dijkstra": 2136,
      "Dijssel": 2137,
      "Dik": 2138,
      "Dikke": 2139,
      "Diksmuide": 2140,
      "Dil": 2141,
      "Dilbeek": 2142,
      "Dill": 2143,
      "Dimitri": 2144,
      "Dina": 2145,
      "Dinamo": 2146,
      "Ding": 2147,
      "Dino": 2148,
      "Dinsdag": 2149,
      "Dio": 2150,
      "Dir": 2151,
      "Direct": 2152,
      "Directeur": 2153,
      "Dirk": 2154,
      "Dis": 2155,
      "Disco": 2156,
      "Discovery": 2157,
      "Disney": 2158,
      "Distri": 2159,
      "District": 2160,
      "Dit": 2161,
      "Dittrich": 2162,
      "Diverse": 2163,
      "Divisie": 2164,
      "Division": 2165,
      "División": 2166,
      "Dj": 2167,
      "Djok": 2168,
      "Dmitri": 2169,
      "Do": 2170,
      "Dob": 2171,
      "Dobb": 2172,
      "Doc": 2173,
      "Doch": 2174,
      "Dochter": 2175,
      "Doctor": 2176,
      "Document": 2177,
      "Documentaire": 2178,
      "Dode": 2179,
      "Dodge": 2180,
      "Doe": 2181,
      "Doel": 2182,
      "Doelman": 2183,
      "Doelpunten": 2184,
      "Doesburg": 2185,
      "Doet": 2186,
      "Doetinchem": 2187,
      "Dog": 2188,
      "Dokter": 2189,
      "Dol": 2190,
      "Dolf": 2191,
      "Dolicho": 2192,
      "Doll": 2193,
      "Dolly": 2194,
      "Dom": 2195,
      "Domin": 2196,
      "Dominic": 2197,
      "Dominicaans": 2198,
      "Dominique": 2199,
      "Don": 2200,
      "Donald": 2201,
      "Donau": 2202,
      "Donder": 2203,
      "Donderdag": 2204,
      "Donetsk": 2205,
      "Dong": 2206,
      "Donker": 2207,
      "Donna": 2208,
      "Donner": 2209,
      "Donovan": 2210,
      "Dood": 2211,
      "Door": 2212,
      "Doorgaan": 2213,
      "Doornik": 2214,
      "Dor": 2215,
      "Dora": 2216,
      "Dordrecht": 2217,
      "Dordtse": 2218,
      "Dorian": 2219,
      "Dorothe": 2220,
      "Dorothy": 2221,
      "Dorp": 2222,
      "Dortmund": 2223,
      "Dost": 2224,
      "Dou": 2225,
      "Doug": 2226,
      "Douglas": 2227,
      "Douwe": 2228,
      "Dover": 2229,
      "Dow": 2230,
      "Down": 2231,
      "Dr": 2232,
      "Dra": 2233,
      "Draai": 2234,
      "Draak": 2235,
      "Dracht": 2236,
      "Drag": 2237,
      "Dragon": 2238,
      "Drake": 2239,
      "Draken": 2240,
      "Drama": 2241,
      "Dre": 2242,
      "Dream": 2243,
      "Drees": 2244,
      "Drenthe": 2245,
      "Drents": 2246,
      "Dresden": 2247,
      "Drew": 2248,
      "Drie": 2249,
      "Dries": 2250,
      "Drink": 2251,
      "Drive": 2252,
      "Dro": 2253,
      "Drog": 2254,
      "Drongen": 2255,
      "Droog": 2256,
      "Droom": 2257,
      "Dru": 2258,
      "Drugs": 2259,
      "Druk": 2260,
      "Drum": 2261,
      "Druïde": 2262,
      "Du": 2263,
      "Dubai": 2264,
      "Dubbel": 2265,
      "Dublin": 2266,
      "Dubois": 2267,
      "Duc": 2268,
      "Duck": 2269,
      "Duffel": 2270,
      "Dui": 2271,
      "Duidelijk": 2272,
      "Duin": 2273,
      "Duinkerke": 2274,
      "Duisburg": 2275,
      "Duisenberg": 2276,
      "Duister": 2277,
      "Duits": 2278,
      "Duitsch": 2279,
      "Duitse": 2280,
      "Duitser": 2281,
      "Duitsers": 2282,
      "Duitsland": 2283,
      "Duitstalige": 2284,
      "Duivel": 2285,
      "Duivels": 2286,
      "Duizend": 2287,
      "Duke": 2288,
      "Dul": 2289,
      "Dun": 2290,
      "Duncan": 2291,
      "Dupont": 2292,
      "Dur": 2293,
      "Dus": 2294,
      "Dutch": 2295,
      "Dutchbat": 2296,
      "Dutroux": 2297,
      "Duur": 2298,
      "Dwa": 2299,
      "Dwars": 2300,
      "Dwerg": 2301,
      "Dy": 2302,
      "Dyck": 2303,
      "Dylan": 2304,
      "Dynamo": 2305,
      "Dé": 2306,
      "ECB": 2307,
      "EEG": 2308,
      "EEN": 2309,
      "EG": 2310,
      "EIND": 2311,
      "EK": 2312,
      "EMAILADRES": 2313,
      "EN": 2314,
      "ETA": 2315,
      "EU": 2316,
      "EUR": 2317,
      "EURO": 2318,
      "EUROPESE": 2319,
      "Eagles": 2320,
      "Earl": 2321,
      "Earth": 2322,
      "East": 2323,
      "Easy": 2324,
      "Eb": 2325,
      "Eberhard": 2326,
      "Ec": 2327,
      "Echt": 2328,
      "Echter": 2329,
      "Eck": 2330,
      "Eco": 2331,
      "Ecolo": 2332,
      "Econom": 2333,
      "Economic": 2334,
      "Economie": 2335,
      "Economisch": 2336,
      "Economist": 2337,
      "Ecuador": 2338,
      "Ed": 2339,
      "Eddie": 2340,
      "Eddy": 2341,
      "Edel": 2342,
      "Edgar": 2343,
      "Edinburgh": 2344,
      "Edison": 2345,
      "Edith": 2346,
      "Edmond": 2347,
      "Edmund": 2348,
      "Eduard": 2349,
      "Edward": 2350,
      "Edwards": 2351,
      "Edwin": 2352,
      "Eeckhout": 2353,
      "Eed": 2354,
      "Eef": 2355,
      "Eeklo": 2356,
      "Eem": 2357,
      "Een": 2358,
      "Eendracht": 2359,
      "Eer": 2360,
      "Eerder": 2361,
      "Eerlijk": 2362,
      "Eerst": 2363,
      "Eerste": 2364,
      "Eet": 2365,
      "Eeuw": 2366,
      "Eeuwig": 2367,
      "Effect": 2368,
      "Efteling": 2369,
      "Eg": 2370,
      "Egbert": 2371,
      "Egmond": 2372,
      "Egypte": 2373,
      "Egyptena": 2374,
      "Egyptisch": 2375,
      "Eh": 2376,
      "Ei": 2377,
      "Eigen": 2378,
      "Eigenaar": 2379,
      "Eigenlijk": 2380,
      "Eijk": 2381,
      "Eiland": 2382,
      "Eilanden": 2383,
      "Ein": 2384,
      "Eind": 2385,
      "Eindhoven": 2386,
      "Eindhovense": 2387,
      "Einstein": 2388,
      "Eisen": 2389,
      "Ek": 2390,
      "El": 2391,
      "Ela": 2392,
      "Elaine": 2393,
      "Elders": 2394,
      "Eleanor": 2395,
      "Electrabel": 2396,
      "Electric": 2397,
      "Electronic": 2398,
      "Elektro": 2399,
      "Elena": 2400,
      "Eleonor": 2401,
      "Elf": 2402,
      "Elfen": 2403,
      "Eli": 2404,
      "Elia": 2405,
      "Elias": 2406,
      "Eline": 2407,
      "Elisa": 2408,
      "Elisabeth": 2409,
      "Elise": 2410,
      "Eliza": 2411,
      "Elizabeth": 2412,
      "Elk": 2413,
      "Elke": 2414,
      "Ella": 2415,
      "Elle": 2416,
      "Ellen": 2417,
      "Ellie": 2418,
      "Elliot": 2419,
      "Ellis": 2420,
      "Elly": 2421,
      "Els": 2422,
      "Elsevier": 2423,
      "Elvis": 2424,
      "Em": 2425,
      "Emanuel": 2426,
      "Emb": 2427,
      "Emile": 2428,
      "Emilie": 2429,
      "Emilio": 2430,
      "Emily": 2431,
      "Emirate": 2432,
      "Emma": 2433,
      "Emmanuel": 2434,
      "Emmen": 2435,
      "Emmy": 2436,
      "Emp": 2437,
      "Empire": 2438,
      "En": 2439,
      "Endemol": 2440,
      "Eneco": 2441,
      "Energie": 2442,
      "Energy": 2443,
      "Enfin": 2444,
      "Engel": 2445,
      "Engeland": 2446,
      "Engels": 2447,
      "Engelsch": 2448,
      "Engelse": 2449,
      "Engelsen": 2450,
      "Engelsman": 2451,
      "Engelstalige": 2452,
      "England": 2453,
      "English": 2454,
      "Enkel": 2455,
      "Enkele": 2456,
      "Enkhuize": 2457,
      "Enrique": 2458,
      "Enschede": 2459,
      "Ensemble": 2460,
      "Enterprise": 2461,
      "Entertainment": 2462,
      "Ep": 2463,
      "Eph": 2464,
      "Epi": 2465,
      "Er": 2466,
      "Eragon": 2467,
      "Erasmus": 2468,
      "Erdogan": 2469,
      "Ereb": 2470,
      "Eredivisie": 2471,
      "Erfgoed": 2472,
      "Erg": 2473,
      "Ergens": 2474,
      "Eric": 2475,
      "Erica": 2476,
      "Erik": 2477,
      "Eritrea": 2478,
      "Erlen": 2479,
      "Ernest": 2480,
      "Ernst": 2481,
      "Erwin": 2482,
      "Es": 2483,
      "Esp": 2484,
      "Ess": 2485,
      "Essen": 2486,
      "Est": 2487,
      "Esther": 2488,
      "Estland": 2489,
      "Eta": 2490,
      "Eth": 2491,
      "Ethan": 2492,
      "Ethiopisch": 2493,
      "Ethiopië": 2494,
      "Etienne": 2495,
      "Eu": 2496,
      "Eugene": 2497,
      "Eugeni": 2498,
      "Eugèn": 2499,
      "Euh": 2500,
      "Euloph": 2501,
      "Eupen": 2502,
      "Euro": 2503,
      "Eurocommissaris": 2504,
      "Euronext": 2505,
      "Europa": 2506,
      "Europe": 2507,
      "Europeaan": 2508,
      "European": 2509,
      "Europees": 2510,
      "Europese": 2511,
      "Eurostat": 2512,
      "Eurovisie": 2513,
      "Eury": 2514,
      "Ev": 2515,
      "Eva": 2516,
      "Evan": 2517,
      "Evangeli": 2518,
      "Evans": 2519,
      "Eve": 2520,
      "Evelien": 2521,
      "Evelyn": 2522,
      "Even": 2523,
      "Ever": 2524,
      "Evergem": 2525,
      "Evers": 2526,
      "Evert": 2527,
      "Everton": 2528,
      "Evi": 2529,
      "Ex": 2530,
      "Exc": 2531,
      "Excelsior": 2532,
      "Exchange": 2533,
      "Expeditie": 2534,
      "Expert": 2535,
      "Explo": 2536,
      "Explorer": 2537,
      "Expo": 2538,
      "Express": 2539,
      "Extra": 2540,
      "Exxon": 2541,
      "Ey": 2542,
      "Eyck": 2543,
      "Eye": 2544,
      "Eén": 2545,
      "FA": 2546,
      "FBI": 2547,
      "FC": 2548,
      "FILM": 2549,
      "FM": 2550,
      "FNV": 2551,
      "FOTO": 2552,
      "FP": 2553,
      "Fa": 2554,
      "Faber": 2555,
      "Fabi": 2556,
      "Fabian": 2557,
      "Fabio": 2558,
      "Fabri": 2559,
      "Fabric": 2560,
      "Facebook": 2561,
      "Factor": 2562,
      "Fail": 2563,
      "Fair": 2564,
      "Faith": 2565,
      "Fal": 2566,
      "Falco": 2567,
      "Falk": 2568,
      "Fall": 2569,
      "Fame": 2570,
      "Familie": 2571,
      "Family": 2572,
      "Fan": 2573,
      "Fanny": 2574,
      "Fanta": 2575,
      "Fantastisch": 2576,
      "Far": 2577,
      "Fara": 2578,
      "Fari": 2579,
      "Farm": 2580,
      "Farrell": 2581,
      "Fashion": 2582,
      "Fass": 2583,
      "Fast": 2584,
      "Fat": 2585,
      "Fatah": 2586,
      "Fatima": 2587,
      "Fau": 2588,
      "Faust": 2589,
      "Fay": 2590,
      "Fe": 2591,
      "Fed": 2592,
      "Federal": 2593,
      "Federatie": 2594,
      "Federer": 2595,
      "Federic": 2596,
      "Feest": 2597,
      "Feit": 2598,
      "Feitelijk": 2599,
      "Fel": 2600,
      "Feld": 2601,
      "Felice": 2602,
      "Felicit": 2603,
      "Felipe": 2604,
      "Felix": 2605,
      "Fell": 2606,
      "Femke": 2607,
      "Fen": 2608,
      "Fenerbah": 2609,
      "Fer": 2610,
      "Ferdinand": 2611,
      "Fergus": 2612,
      "Ferguson": 2613,
      "Fernand": 2614,
      "Fernando": 2615,
      "Ferra": 2616,
      "Ferrari": 2617,
      "Ferrer": 2618,
      "Ferri": 2619,
      "Ferro": 2620,
      "Ferry": 2621,
      "Fest": 2622,
      "Festival": 2623,
      "Feyenoord": 2624,
      "Fi": 2625,
      "Fiat": 2626,
      "Fidel": 2627,
      "Field": 2628,
      "Fiets": 2629,
      "Fig": 2630,
      "Fijn": 2631,
      "Fil": 2632,
      "Filip": 2633,
      "Filipijnen": 2634,
      "Filipijns": 2635,
      "Filips": 2636,
      "Film": 2637,
      "Fin": 2638,
      "Final": 2639,
      "Financial": 2640,
      "Financieel": 2641,
      "Financiën": 2642,
      "Finland": 2643,
      "Finn": 2644,
      "Fins": 2645,
      "Fiona": 2646,
      "Fir": 2647,
      "Fire": 2648,
      "First": 2649,
      "Fischer": 2650,
      "Fisher": 2651,
      "Fitz": 2652,
      "Five": 2653,
      "Fl": 2654,
      "Fla": 2655,
      "Flag": 2656,
      "Flam": 2657,
      "Flanders": 2658,
      "Flash": 2659,
      "Fle": 2660,
      "Fleming": 2661,
      "Fletcher": 2662,
      "Fleur": 2663,
      "Flevoland": 2664,
      "Flex": 2665,
      "Flint": 2666,
      "Flip": 2667,
      "Flo": 2668,
      "Floor": 2669,
      "Flor": 2670,
      "Flora": 2671,
      "Florenc": 2672,
      "Florent": 2673,
      "Flori": 2674,
      "Florian": 2675,
      "Florida": 2676,
      "Floris": 2677,
      "Flower": 2678,
      "Floyd": 2679,
      "Flu": 2680,
      "Fly": 2681,
      "Flynn": 2682,
      "Fo": 2683,
      "Focus": 2684,
      "Fokker": 2685,
      "Fol": 2686,
      "Fonds": 2687,
      "Fons": 2688,
      "Font": 2689,
      "Fontaine": 2690,
      "Food": 2691,
      "Football": 2692,
      "For": 2693,
      "Forbes": 2694,
      "Force": 2695,
      "Ford": 2696,
      "Forensisch": 2697,
      "Forest": 2698,
      "Form": 2699,
      "Formule": 2700,
      "Forrest": 2701,
      "Fort": 2702,
      "Fortis": 2703,
      "Fortuna": 2704,
      "Fortuyn": 2705,
      "Forum": 2706,
      "Foster": 2707,
      "Foto": 2708,
      "Foundation": 2709,
      "Four": 2710,
      "Fowler": 2711,
      "Fox": 2712,
      "Fr": 2713,
      "Fra": 2714,
      "Fran": 2715,
      "France": 2716,
      "Francesca": 2717,
      "Francesco": 2718,
      "Francien": 2719,
      "Francine": 2720,
      "Francis": 2721,
      "Francisco": 2722,
      "Franciscus": 2723,
      "Franck": 2724,
      "Franco": 2725,
      "Frank": 2726,
      "Frankfurt": 2727,
      "Frankie": 2728,
      "Franklin": 2729,
      "Frankrijk": 2730,
      "Frans": 2731,
      "Fransch": 2732,
      "Franse": 2733,
      "Fransen": 2734,
      "Fransman": 2735,
      "Franstalige": 2736,
      "Franz": 2737,
      "Fraser": 2738,
      "Frau": 2739,
      "Fre": 2740,
      "Fred": 2741,
      "Freddie": 2742,
      "Freddy": 2743,
      "Frederick": 2744,
      "Frederik": 2745,
      "Fredrik": 2746,
      "Free": 2747,
      "Freedom": 2748,
      "Freek": 2749,
      "Frei": 2750,
      "French": 2751,
      "Freud": 2752,
      "Frey": 2753,
      "Fri": 2754,
      "Fried": 2755,
      "Friedrich": 2756,
      "Fries": 2757,
      "Friese": 2758,
      "Friesland": 2759,
      "Friezen": 2760,
      "Friso": 2761,
      "Frits": 2762,
      "Fritz": 2763,
      "Fro": 2764,
      "Frodo": 2765,
      "From": 2766,
      "Front": 2767,
      "Fruit": 2768,
      "Fry": 2769,
      "Frédéric": 2770,
      "Fu": 2771,
      "Fuchs": 2772,
      "Fuck": 2773,
      "Fuji": 2774,
      "Ful": 2775,
      "Full": 2776,
      "Fun": 2777,
      "Fund": 2778,
      "Fur": 2779,
      "GB": 2780,
      "GE": 2781,
      "GEMEENSCHAPPE": 2782,
      "GENT": 2783,
      "GP": 2784,
      "GRO": 2785,
      "GSM": 2786,
      "GVB": 2787,
      "Ga": 2788,
      "Gaal": 2789,
      "Gaan": 2790,
      "Gaat": 2791,
      "Gabriel": 2792,
      "Gabrielle": 2793,
      "Gabriël": 2794,
      "Gal": 2795,
      "Gala": 2796,
      "Galapagos": 2797,
      "Galatasaray": 2798,
      "Galax": 2799,
      "Galerie": 2800,
      "Galile": 2801,
      "Gall": 2802,
      "Galler": 2803,
      "Gamb": 2804,
      "Game": 2805,
      "Games": 2806,
      "Gandalf": 2807,
      "Gandhi": 2808,
      "Gang": 2809,
      "Gans": 2810,
      "Ganz": 2811,
      "Gar": 2812,
      "Garci": 2813,
      "Garde": 2814,
      "Garden": 2815,
      "Garp": 2816,
      "Garri": 2817,
      "Garros": 2818,
      "Gary": 2819,
      "Gaspar": 2820,
      "Gast": 2821,
      "Gasthuis": 2822,
      "Gaston": 2823,
      "Gastrop": 2824,
      "Gates": 2825,
      "Gau": 2826,
      "Gaulle": 2827,
      "Gay": 2828,
      "Gaza": 2829,
      "Gazastrook": 2830,
      "Ge": 2831,
      "Gebruik": 2832,
      "Gedaan": 2833,
      "Geduld": 2834,
      "Gedurende": 2835,
      "Geef": 2836,
      "Geel": 2837,
      "Geen": 2838,
      "Geer": 2839,
      "Geert": 2840,
      "Geest": 2841,
      "Geheel": 2842,
      "Geheim": 2843,
      "Gek": 2844,
      "Gel": 2845,
      "Geld": 2846,
      "Gelder": 2847,
      "Gelderland": 2848,
      "Gelderse": 2849,
      "Gele": 2850,
      "Gelechi": 2851,
      "Geleidelijk": 2852,
      "Gelet": 2853,
      "Gelijk": 2854,
      "Geloof": 2855,
      "Gelre": 2856,
      "Geluid": 2857,
      "Geluk": 2858,
      "Gelukkig": 2859,
      "Gem": 2860,
      "Gemeenschap": 2861,
      "Gemeenschappen": 2862,
      "Gemeente": 2863,
      "Gemeentelijk": 2864,
      "Gemeenten": 2865,
      "Gemenebest": 2866,
      "Gemiddeld": 2867,
      "Gemma": 2868,
      "Gen": 2869,
      "Gene": 2870,
      "Generaal": 2871,
      "General": 2872,
      "Genesis": 2873,
      "Geniet": 2874,
      "Genk": 2875,
      "Geno": 2876,
      "Genoeg": 2877,
      "Genootschap": 2878,
      "Gent": 2879,
      "Gentenaar": 2880,
      "Gentse": 2881,
      "Genua": 2882,
      "Genève": 2883,
      "Geo": 2884,
      "Geoffrey": 2885,
      "Geometr": 2886,
      "Georg": 2887,
      "George": 2888,
      "Georges": 2889,
      "Georgi": 2890,
      "Georgia": 2891,
      "Georgisch": 2892,
      "Georgië": 2893,
      "Ger": 2894,
      "Geraardsbergen": 2895,
      "Gerald": 2896,
      "Gerard": 2897,
      "Gerben": 2898,
      "Gerbrand": 2899,
      "Gerda": 2900,
      "Gerechtsho": 2901,
      "Gereformeerde": 2902,
      "Gerets": 2903,
      "Gerhard": 2904,
      "Germaans": 2905,
      "Germain": 2906,
      "German": 2907,
      "Germinal": 2908,
      "Gerrit": 2909,
      "Gerry": 2910,
      "Gert": 2911,
      "Gerw": 2912,
      "Geschiedenis": 2913,
      "Gesprek": 2914,
      "Gestapo": 2915,
      "Getuigen": 2916,
      "Geus": 2917,
      "Gevaert": 2918,
      "Gevangen": 2919,
      "Gevolg": 2920,
      "Gew": 2921,
      "Geweld": 2922,
      "Geweldig": 2923,
      "Gewest": 2924,
      "Gewon": 2925,
      "Gewoon": 2926,
      "Geze": 2927,
      "Gezi": 2928,
      "Gezond": 2929,
      "Gezondheidszorg": 2930,
      "Gha": 2931,
      "Ghana": 2932,
      "Ghane": 2933,
      "Ghe": 2934,
      "Ghost": 2935,
      "Gi": 2936,
      "Giacom": 2937,
      "Gian": 2938,
      "Gianni": 2939,
      "Gibb": 2940,
      "Gibraltar": 2941,
      "Gibson": 2942,
      "Gideon": 2943,
      "Gids": 2944,
      "Giel": 2945,
      "Giet": 2946,
      "Gij": 2947,
      "Gijs": 2948,
      "Gil": 2949,
      "Gilbert": 2950,
      "Gill": 2951,
      "Gilles": 2952,
      "Gillia": 2953,
      "Gillis": 2954,
      "Gina": 2955,
      "Ging": 2956,
      "Ginger": 2957,
      "Ginn": 2958,
      "Gino": 2959,
      "Gio": 2960,
      "Giorgio": 2961,
      "Giovanni": 2962,
      "Girl": 2963,
      "Giro": 2964,
      "Gis": 2965,
      "Gistel": 2966,
      "Gister": 2967,
      "Gisteren": 2968,
      "Giuli": 2969,
      "Giusepp": 2970,
      "Gla": 2971,
      "Glad": 2972,
      "Glas": 2973,
      "Glasgow": 2974,
      "Glen": 2975,
      "Glenn": 2976,
      "Gli": 2977,
      "Glimlachend": 2978,
      "Glo": 2979,
      "Global": 2980,
      "Globe": 2981,
      "Gloria": 2982,
      "Gly": 2983,
      "Go": 2984,
      "God": 2985,
      "Goddank": 2986,
      "Godfried": 2987,
      "Gods": 2988,
      "Goe": 2989,
      "Goed": 2990,
      "Goede": 2991,
      "Goeie": 2992,
      "Goes": 2993,
      "Goethe": 2994,
      "Gogh": 2995,
      "Goh": 2996,
      "Gol": 2997,
      "Gold": 2998,
      "Golden": 2999,
      "Goldman": 3000,
      "Golf": 3001,
      "Golfoorlog": 3002,
      "Gomez": 3003,
      "Gon": 3004,
      "Gonzalez": 3005,
      "Good": 3006,
      "Google": 3007,
      "Gooi": 3008,
      "Goor": 3009,
      "Goos": 3010,
      "Goossens": 3011,
      "Gor": 3012,
      "Gorbatsjov": 3013,
      "Gord": 3014,
      "Gordon": 3015,
      "Gore": 3016,
      "Gorinchem": 3017,
      "Gosseyn": 3018,
      "Got": 3019,
      "Gott": 3020,
      "Gou": 3021,
      "Goud": 3022,
      "Gouda": 3023,
      "Gouden": 3024,
      "Gould": 3025,
      "Gouverneur": 3026,
      "Gr": 3027,
      "Gra": 3028,
      "Graa": 3029,
      "Graaf": 3030,
      "Graafschap": 3031,
      "Grace": 3032,
      "Grad": 3033,
      "Graf": 3034,
      "Graham": 3035,
      "Grammy": 3036,
      "Gran": 3037,
      "Granad": 3038,
      "Grand": 3039,
      "Grande": 3040,
      "Grant": 3041,
      "Grappig": 3042,
      "Gratis": 3043,
      "Grave": 3044,
      "Graven": 3045,
      "Gray": 3046,
      "Graz": 3047,
      "Gre": 3048,
      "Great": 3049,
      "Green": 3050,
      "Greenpeace": 3051,
      "Greenspan": 3052,
      "Greet": 3053,
      "Greg": 3054,
      "Gregor": 3055,
      "Grens": 3056,
      "Grenzen": 3057,
      "Greve": 3058,
      "Grey": 3059,
      "Gri": 3060,
      "Griek": 3061,
      "Grieken": 3062,
      "Griekenland": 3063,
      "Grieks": 3064,
      "Griekse": 3065,
      "Griet": 3066,
      "Griff": 3067,
      "Griffin": 3068,
      "Grijp": 3069,
      "Grijze": 3070,
      "Grim": 3071,
      "Grimbergen": 3072,
      "Gro": 3073,
      "Groen": 3074,
      "GroenLinks": 3075,
      "Groene": 3076,
      "Groenin": 3077,
      "Groenland": 3078,
      "Groep": 3079,
      "Grond": 3080,
      "Grondwet": 3081,
      "Groningen": 3082,
      "Groninger": 3083,
      "Gronings": 3084,
      "Groot": 3085,
      "Gross": 3086,
      "Grote": 3087,
      "Group": 3088,
      "Grove": 3089,
      "Gru": 3090,
      "Grunberg": 3091,
      "Gu": 3092,
      "Gua": 3093,
      "Guardian": 3094,
      "Guatemala": 3095,
      "Gucci": 3096,
      "Gucht": 3097,
      "Gud": 3098,
      "Guer": 3099,
      "Guggenheim": 3100,
      "Gui": 3101,
      "Guido": 3102,
      "Guil": 3103,
      "Guillaume": 3104,
      "Guinea": 3105,
      "Guinee": 3106,
      "Guinness": 3107,
      "Gul": 3108,
      "Gulden": 3109,
      "Gullit": 3110,
      "Gun": 3111,
      "Gunnar": 3112,
      "Gunther": 3113,
      "Gur": 3114,
      "Gus": 3115,
      "Gustav": 3116,
      "Gut": 3117,
      "Gutenberg": 3118,
      "Guus": 3119,
      "Guy": 3120,
      "Guzm": 3121,
      "Gwen": 3122,
      "Gwy": 3123,
      "Gy": 3124,
      "Gé": 3125,
      "Gérard": 3126,
      "Gö": 3127,
      "Göteborg": 3128,
      "HAAG": 3129,
      "HEER": 3130,
      "HET": 3131,
      "HIJ": 3132,
      "HO": 3133,
      "Ha": 3134,
      "Haacht": 3135,
      "Haag": 3136,
      "Haagse": 3137,
      "Haak": 3138,
      "Haal": 3139,
      "Haan": 3140,
      "Haar": 3141,
      "Haarlem": 3142,
      "Haarlemmer": 3143,
      "Haarlemmermeer": 3144,
      "Haarlemse": 3145,
      "Haas": 3146,
      "Haastig": 3147,
      "Hab": 3148,
      "Habib": 3149,
      "Habsburg": 3150,
      "Hack": 3151,
      "Had": 3152,
      "Hadden": 3153,
      "Hag": 3154,
      "Hagemeyer": 3155,
      "Hagen": 3156,
      "Hagenaar": 3157,
      "Haha": 3158,
      "Hahaha": 3159,
      "Hai": 3160,
      "Haider": 3161,
      "Hak": 3162,
      "Hakim": 3163,
      "Hal": 3164,
      "Half": 3165,
      "Halic": 3166,
      "Hall": 3167,
      "Halle": 3168,
      "Hallo": 3169,
      "Halloween": 3170,
      "Halt": 3171,
      "Halve": 3172,
      "Halverweg": 3173,
      "Ham": 3174,
      "Hamas": 3175,
      "Hamburg": 3176,
      "Hamilton": 3177,
      "Hamme": 3178,
      "Hammond": 3179,
      "Hamp": 3180,
      "Hampson": 3181,
      "Han": 3182,
      "Hand": 3183,
      "Handel": 3184,
      "Handelsblad": 3185,
      "Hang": 3186,
      "Hank": 3187,
      "Hanna": 3188,
      "Hannah": 3189,
      "Hanne": 3190,
      "Hanneke": 3191,
      "Hannover": 3192,
      "Hans": 3193,
      "Hap": 3194,
      "Haplo": 3195,
      "Happy": 3196,
      "Har": 3197,
      "Harald": 3198,
      "Hard": 3199,
      "Harderwijk": 3200,
      "Hardy": 3201,
      "Harelbeke": 3202,
      "Harley": 3203,
      "Harm": 3204,
      "Harmonie": 3205,
      "Harold": 3206,
      "Harper": 3207,
      "Harriet": 3208,
      "Harris": 3209,
      "Harrison": 3210,
      "Harry": 3211,
      "Hart": 3212,
      "Hartog": 3213,
      "Harvey": 3214,
      "Has": 3215,
      "Hassan": 3216,
      "Hasselt": 3217,
      "Hastings": 3218,
      "Hat": 3219,
      "Haupt": 3220,
      "Hauspie": 3221,
      "Haut": 3222,
      "Haute": 3223,
      "Havana": 3224,
      "Have": 3225,
      "Haven": 3226,
      "Haver": 3227,
      "Havik": 3228,
      "Hawaii": 3229,
      "Hawaï": 3230,
      "Hawk": 3231,
      "Hay": 3232,
      "Haz": 3233,
      "Hazel": 3234,
      "Hazes": 3235,
      "Haïti": 3236,
      "He": 3237,
      "Head": 3238,
      "Health": 3239,
      "Heart": 3240,
      "Heath": 3241,
      "Heather": 3242,
      "Heaven": 3243,
      "Heb": 3244,
      "Hebben": 3245,
      "Hebreeuws": 3246,
      "Hecke": 3247,
      "Hector": 3248,
      "Hed": 3249,
      "Hedwig": 3250,
      "Hee": 3251,
      "Heef": 3252,
      "Heel": 3253,
      "Heem": 3254,
      "Heemskerk": 3255,
      "Heer": 3256,
      "Heerenveen": 3257,
      "Heerlen": 3258,
      "Heerlijk": 3259,
      "Hees": 3260,
      "Hei": 3261,
      "Heide": 3262,
      "Heidelberg": 3263,
      "Heidi": 3264,
      "Heij": 3265,
      "Heijden": 3266,
      "Heijmans": 3267,
      "Heijn": 3268,
      "Heil": 3269,
      "Heilig": 3270,
      "Heilige": 3271,
      "Hein": 3272,
      "Heineken": 3273,
      "Heinrich": 3274,
      "Heinz": 3275,
      "Heist": 3276,
      "Hek": 3277,
      "Hel": 3278,
      "Helaas": 3279,
      "Held": 3280,
      "Helder": 3281,
      "Heleen": 3282,
      "Helemaal": 3283,
      "Helen": 3284,
      "Helena": 3285,
      "Helio": 3286,
      "Hell": 3287,
      "Helle": 3288,
      "Helm": 3289,
      "Helmond": 3290,
      "Helmut": 3291,
      "Help": 3292,
      "Helsinki": 3293,
      "Hem": 3294,
      "Hemel": 3295,
      "Hemi": 3296,
      "Hen": 3297,
      "Henderson": 3298,
      "Hendrick": 3299,
      "Hendrickx": 3300,
      "Hendrik": 3301,
      "Hendrix": 3302,
      "Henegouwen": 3303,
      "Hengelo": 3304,
      "Henin": 3305,
      "Henk": 3306,
      "Henn": 3307,
      "Henni": 3308,
      "Henri": 3309,
      "Henrik": 3310,
      "Henriëtte": 3311,
      "Henry": 3312,
      "Her": 3313,
      "Heracles": 3314,
      "Herald": 3315,
      "Herb": 3316,
      "Herben": 3317,
      "Herbert": 3318,
      "Hercule": 3319,
      "Heren": 3320,
      "Herentals": 3321,
      "Herf": 3322,
      "Herinner": 3323,
      "Herk": 3324,
      "Herm": 3325,
      "Herman": 3326,
      "Hermans": 3327,
      "Hermeli": 3328,
      "Hermes": 3329,
      "Hero": 3330,
      "Herr": 3331,
      "Herre": 3332,
      "Herschel": 3333,
      "Hert": 3334,
      "Hertog": 3335,
      "Hertogenbosch": 3336,
      "Hervormde": 3337,
      "Herzegovina": 3338,
      "Hess": 3339,
      "Hessel": 3340,
      "Hester": 3341,
      "Het": 3342,
      "Hetero": 3343,
      "Heu": 3344,
      "Heusden": 3345,
      "Heuvel": 3346,
      "Heverlee": 3347,
      "Hewitt": 3348,
      "Hey": 3349,
      "Hezbollah": 3350,
      "Hi": 3351,
      "Hidde": 3352,
      "Hiddin": 3353,
      "Hielke": 3354,
      "Hier": 3355,
      "Hierbij": 3356,
      "Hiermee": 3357,
      "Hierna": 3358,
      "Hierop": 3359,
      "High": 3360,
      "Highway": 3361,
      "Hij": 3362,
      "Hil": 3363,
      "Hilar": 3364,
      "Hilde": 3365,
      "Hill": 3366,
      "Hillar": 3367,
      "Hilton": 3368,
      "Hilversum": 3369,
      "Himalaya": 3370,
      "Hin": 3371,
      "Hind": 3372,
      "Hindoe": 3373,
      "Hingis": 3374,
      "Hir": 3375,
      "Hiroshi": 3376,
      "Hirsch": 3377,
      "Hirsi": 3378,
      "Historic": 3379,
      "Historisch": 3380,
      "History": 3381,
      "Hit": 3382,
      "Hitchcock": 3383,
      "Hitler": 3384,
      "Hm": 3385,
      "Hmm": 3386,
      "Ho": 3387,
      "Hob": 3388,
      "Hoboken": 3389,
      "Hockey": 3390,
      "Hoe": 3391,
      "Hoegaarden": 3392,
      "Hoek": 3393,
      "Hoekstra": 3394,
      "Hoessein": 3395,
      "Hoeveel": 3396,
      "Hoeven": 3397,
      "Hof": 3398,
      "Hoffman": 3399,
      "Hofman": 3400,
      "Hoge": 3401,
      "Hoger": 3402,
      "Hogeschool": 3403,
      "Hoi": 3404,
      "Hol": 3405,
      "Holding": 3406,
      "Holiday": 3407,
      "Holl": 3408,
      "Holland": 3409,
      "Hollander": 3410,
      "Hollanders": 3411,
      "Hollandsche": 3412,
      "Hollandse": 3413,
      "Holleeder": 3414,
      "Holly": 3415,
      "Hollywood": 3416,
      "Holmes": 3417,
      "Holocaust": 3418,
      "Holsbee": 3419,
      "Holst": 3420,
      "Holstein": 3421,
      "Holt": 3422,
      "Hom": 3423,
      "Home": 3424,
      "Homme": 3425,
      "Homo": 3426,
      "Hon": 3427,
      "Hond": 3428,
      "Honda": 3429,
      "Honderd": 3430,
      "Honduras": 3431,
      "Honey": 3432,
      "Hong": 3433,
      "Hongaars": 3434,
      "Hongaarse": 3435,
      "Hongar": 3436,
      "Hongarije": 3437,
      "Hongkong": 3438,
      "Honor": 3439,
      "Hoo": 3440,
      "Hoof": 3441,
      "Hoofd": 3442,
      "Hoofddorp": 3443,
      "Hoofdpunten": 3444,
      "Hoog": 3445,
      "Hoogenband": 3446,
      "Hoogeveen": 3447,
      "Hooggerechtshof": 3448,
      "Hoogland": 3449,
      "Hoogovens": 3450,
      "Hoogst": 3451,
      "Hoogstraten": 3452,
      "Hooijdonk": 3453,
      "Hoop": 3454,
      "Hoor": 3455,
      "Hoorn": 3456,
      "Hop": 3457,
      "Hope": 3458,
      "Hopkins": 3459,
      "Hor": 3460,
      "Horeca": 3461,
      "Horizon": 3462,
      "Horn": 3463,
      "Horst": 3464,
      "Hospital": 3465,
      "Hoste": 3466,
      "Hot": 3467,
      "Hotel": 3468,
      "Hotspur": 3469,
      "Hou": 3470,
      "Houd": 3471,
      "House": 3472,
      "Houston": 3473,
      "Hout": 3474,
      "Houtem": 3475,
      "Houthalen": 3476,
      "Hove": 3477,
      "How": 3478,
      "Howard": 3479,
      "Hu": 3480,
      "Hub": 3481,
      "Hubert": 3482,
      "Hudson": 3483,
      "Hugh": 3484,
      "Hugo": 3485,
      "Hui": 3486,
      "Huib": 3487,
      "Huis": 3488,
      "Huizen": 3489,
      "Hul": 3490,
      "Hulp": 3491,
      "Hulst": 3492,
      "Hum": 3493,
      "Human": 3494,
      "Hun": 3495,
      "Hunt": 3496,
      "Hunter": 3497,
      "Hur": 3498,
      "Hussein": 3499,
      "Hutch": 3500,
      "Hutu": 3501,
      "Huy": 3502,
      "Huygens": 3503,
      "Huys": 3504,
      "Hy": 3505,
      "Hydro": 3506,
      "Hydrop": 3507,
      "Hymenopt": 3508,
      "Hyp": 3509,
      "Hypo": 3510,
      "Hè": 3511,
      "Hé": 3512,
      "Hö": 3513,
      "IBM": 3514,
      "ICT": 3515,
      "ID": 3516,
      "II": 3517,
      "III": 3518,
      "IJ": 3519,
      "IJmuiden": 3520,
      "IJs": 3521,
      "IJsland": 3522,
      "IJssel": 3523,
      "IJsselmeer": 3524,
      "IJzer": 3525,
      "IK": 3526,
      "IMF": 3527,
      "IN": 3528,
      "IND": 3529,
      "ING": 3530,
      "INSE": 3531,
      "IRA": 3532,
      "IS": 3533,
      "ISBN": 3534,
      "ISO": 3535,
      "IT": 3536,
      "IUCN": 3537,
      "IV": 3538,
      "Ian": 3539,
      "Ib": 3540,
      "Ibiza": 3541,
      "Ibrahim": 3542,
      "Ibrahimovic": 3543,
      "Ice": 3544,
      "Ida": 3545,
      "Idaho": 3546,
      "Idi": 3547,
      "Idols": 3548,
      "Ieder": 3549,
      "Iedere": 3550,
      "Iemand": 3551,
      "Ieper": 3552,
      "Ier": 3553,
      "Ierland": 3554,
      "Ierse": 3555,
      "Iets": 3556,
      "If": 3557,
      "Igor": 3558,
      "Ik": 3559,
      "Il": 3560,
      "Ill": 3561,
      "Illinois": 3562,
      "Ilse": 3563,
      "Im": 3564,
      "Imag": 3565,
      "Immers": 3566,
      "Immigrati": 3567,
      "Imp": 3568,
      "Imperial": 3569,
      "In": 3570,
      "InBev": 3571,
      "Independent": 3572,
      "Index": 3573,
      "India": 3574,
      "Indiana": 3575,
      "Indianen": 3576,
      "Indias": 3577,
      "Indien": 3578,
      "Indisch": 3579,
      "Indische": 3580,
      "Individu": 3581,
      "Indië": 3582,
      "Indiër": 3583,
      "Indonesisch": 3584,
      "Indonesië": 3585,
      "Industr": 3586,
      "Industrie": 3587,
      "Indy": 3588,
      "Ineens": 3589,
      "Info": 3590,
      "Informatie": 3591,
      "Infrastructuur": 3592,
      "Inge": 3593,
      "Ingrid": 3594,
      "Inlichtingen": 3595,
      "Inspecteur": 3596,
      "Inspectie": 3597,
      "Instinct": 3598,
      "Institut": 3599,
      "Institute": 3600,
      "Instituut": 3601,
      "Integendeel": 3602,
      "Integratie": 3603,
      "Intel": 3604,
      "Inter": 3605,
      "Interessant": 3606,
      "Internationaal": 3607,
      "International": 3608,
      "Internationale": 3609,
      "Internazional": 3610,
      "Internet": 3611,
      "Interpol": 3612,
      "Interview": 3613,
      "Invaller": 3614,
      "Invest": 3615,
      "Investment": 3616,
      "Inwoners": 3617,
      "Iowa": 3618,
      "Ir": 3619,
      "Ira": 3620,
      "Iraaks": 3621,
      "Iraans": 3622,
      "Irak": 3623,
      "Iran": 3624,
      "Iraniër": 3625,
      "Irene": 3626,
      "Iris": 3627,
      "Irma": 3628,
      "Iron": 3629,
      "Irving": 3630,
      "Is": 3631,
      "Isa": 3632,
      "Isaac": 3633,
      "Isabel": 3634,
      "Isabella": 3635,
      "Isabelle": 3636,
      "Islam": 3637,
      "Islamitisch": 3638,
      "Island": 3639,
      "Israel": 3640,
      "Israël": 3641,
      "Israëliet": 3642,
      "Israëlisch": 3643,
      "Israëliër": 3644,
      "Istanboel": 3645,
      "Istanbul": 3646,
      "It": 3647,
      "Ita": 3648,
      "Italia": 3649,
      "Italiaan": 3650,
      "Italiaans": 3651,
      "Italiaanse": 3652,
      "Italianen": 3653,
      "Italië": 3654,
      "Iv": 3655,
      "Ivan": 3656,
      "Ivanov": 3657,
      "Ivo": 3658,
      "Ivoorkust": 3659,
      "Iwan": 3660,
      "Izegem": 3661,
      "JAN": 3662,
      "JC": 3663,
      "JO": 3664,
      "JP": 3665,
      "Ja": 3666,
      "Jaap": 3667,
      "Jaar": 3668,
      "Jaarlijks": 3669,
      "Jabbeke": 3670,
      "Jac": 3671,
      "Jack": 3672,
      "Jackie": 3673,
      "Jackson": 3674,
      "Jacob": 3675,
      "Jacobs": 3676,
      "Jacobus": 3677,
      "Jacqueline": 3678,
      "Jacques": 3679,
      "Jager": 3680,
      "Jaguar": 3681,
      "Jaime": 3682,
      "Jakarta": 3683,
      "Jake": 3684,
      "Jakob": 3685,
      "Jamaica": 3686,
      "Jamb": 3687,
      "James": 3688,
      "Jamie": 3689,
      "Jammer": 3690,
      "Jan": 3691,
      "Jane": 3692,
      "Janeiro": 3693,
      "Janet": 3694,
      "Janine": 3695,
      "Janneke": 3696,
      "Janni": 3697,
      "Jans": 3698,
      "Jansen": 3699,
      "Janssen": 3700,
      "Janssens": 3701,
      "Japan": 3702,
      "Japanner": 3703,
      "Japanners": 3704,
      "Japans": 3705,
      "Jar": 3706,
      "Jaren": 3707,
      "Jarenlang": 3708,
      "Jasmine": 3709,
      "Jason": 3710,
      "Jasper": 3711,
      "Java": 3712,
      "Javier": 3713,
      "Jay": 3714,
      "Jazz": 3715,
      "Je": 3716,
      "Jean": 3717,
      "Jeanne": 3718,
      "Jef": 3719,
      "Jeff": 3720,
      "Jefferson": 3721,
      "Jeffrey": 3722,
      "Jelle": 3723,
      "Jeltsin": 3724,
      "Jemen": 3725,
      "Jenkins": 3726,
      "Jenn": 3727,
      "Jennifer": 3728,
      "Jens": 3729,
      "Jerem": 3730,
      "Jeremia": 3731,
      "Jeroen": 3732,
      "Jerom": 3733,
      "Jerry": 3734,
      "Jersey": 3735,
      "Jeruzalem": 3736,
      "Jesper": 3737,
      "Jess": 3738,
      "Jesse": 3739,
      "Jessica": 3740,
      "Jessie": 3741,
      "Jesus": 3742,
      "Jette": 3743,
      "Jeugd": 3744,
      "Jezus": 3745,
      "Ji": 3746,
      "Jiang": 3747,
      "Jihad": 3748,
      "Jij": 3749,
      "Jill": 3750,
      "Jim": 3751,
      "Jimm": 3752,
      "Jin": 3753,
      "Jo": 3754,
      "Joachim": 3755,
      "Joan": 3756,
      "Joann": 3757,
      "Job": 3758,
      "Jochem": 3759,
      "Joden": 3760,
      "Joe": 3761,
      "Joegosla": 3762,
      "Joegoslavisch": 3763,
      "Joegoslavië": 3764,
      "Joel": 3765,
      "Joep": 3766,
      "Joeri": 3767,
      "Joey": 3768,
      "Johan": 3769,
      "Johann": 3770,
      "Johanna": 3771,
      "Johannes": 3772,
      "Johannesburg": 3773,
      "Johansson": 3774,
      "John": 3775,
      "Johnny": 3776,
      "Johnson": 3777,
      "Johnston": 3778,
      "Joke": 3779,
      "Jol": 3780,
      "Jolie": 3781,
      "Jon": 3782,
      "Jonas": 3783,
      "Jonathan": 3784,
      "Jones": 3785,
      "Jong": 3786,
      "Jonge": 3787,
      "Jongens": 3788,
      "Jongeren": 3789,
      "Jonker": 3790,
      "Jood": 3791,
      "Joods": 3792,
      "Joodse": 3793,
      "Joop": 3794,
      "Joost": 3795,
      "Jor": 3796,
      "Joram": 3797,
      "Jord": 3798,
      "Jordaan": 3799,
      "Jordaanoever": 3800,
      "Jordan": 3801,
      "Jordanië": 3802,
      "Jorge": 3803,
      "Jorien": 3804,
      "Joris": 3805,
      "Jorritsma": 3806,
      "Jos": 3807,
      "Josef": 3808,
      "Joseph": 3809,
      "Josh": 3810,
      "Josie": 3811,
      "José": 3812,
      "Jou": 3813,
      "Journaal": 3814,
      "Journal": 3815,
      "Journalist": 3816,
      "Jouw": 3817,
      "Joyce": 3818,
      "Jozef": 3819,
      "Joël": 3820,
      "Ju": 3821,
      "Juan": 3822,
      "Jud": 3823,
      "Juda": 3824,
      "Judith": 3825,
      "Juffrouw": 3826,
      "Juist": 3827,
      "Jules": 3828,
      "Juli": 3829,
      "Julia": 3830,
      "Julian": 3831,
      "Juliana": 3832,
      "Julie": 3833,
      "Julien": 3834,
      "Julius": 3835,
      "Jullie": 3836,
      "Jumbo": 3837,
      "Jump": 3838,
      "Jun": 3839,
      "Juncker": 3840,
      "Jung": 3841,
      "Juni": 3842,
      "Junior": 3843,
      "Jupiler": 3844,
      "Jupiter": 3845,
      "Jur": 3846,
      "Jura": 3847,
      "Jurgen": 3848,
      "Just": 3849,
      "Justin": 3850,
      "Justine": 3851,
      "Justitie": 3852,
      "Juventus": 3853,
      "Jér": 3854,
      "Jörg": 3855,
      "KB": 3856,
      "KBC": 3857,
      "KFC": 3858,
      "KLM": 3859,
      "KN": 3860,
      "KPM": 3861,
      "KPN": 3862,
      "KRO": 3863,
      "KU": 3864,
      "KV": 3865,
      "Ka": 3866,
      "Kaap": 3867,
      "Kaapstad": 3868,
      "Kaart": 3869,
      "Kab": 3870,
      "Kabila": 3871,
      "Kabinet": 3872,
      "Kabul": 3873,
      "Kad": 3874,
      "Kahl": 3875,
      "Kahn": 3876,
      "Kai": 3877,
      "Kaiser": 3878,
      "Kal": 3879,
      "Kala": 3880,
      "Kalf": 3881,
      "Kali": 3882,
      "Kalm": 3883,
      "Kam": 3884,
      "Kameleon": 3885,
      "Kamer": 3886,
      "Kamerlid": 3887,
      "Kameroen": 3888,
      "Kamerverkiezing": 3889,
      "Kamp": 3890,
      "Kampioen": 3891,
      "Kampioenschap": 3892,
      "Kan": 3893,
      "Kanaal": 3894,
      "Kansa": 3895,
      "Kant": 3896,
      "Kanton": 3897,
      "Kap": 3898,
      "Kapel": 3899,
      "Kapelle": 3900,
      "Kapitein": 3901,
      "Kar": 3902,
      "Kara": 3903,
      "Karda": 3904,
      "Karel": 3905,
      "Karen": 3906,
      "Karim": 3907,
      "Karin": 3908,
      "Karl": 3909,
      "Karol": 3910,
      "Kas": 3911,
      "Kashmir": 3912,
      "Kasom": 3913,
      "Kaspar": 3914,
      "Kasparov": 3915,
      "Kasper": 3916,
      "Kasteel": 3917,
      "Kat": 3918,
      "Kate": 3919,
      "Katelijne": 3920,
      "Katerin": 3921,
      "Kath": 3922,
      "Katherine": 3923,
      "Katholieke": 3924,
      "Katie": 3925,
      "Katja": 3926,
      "Katrien": 3927,
      "Katrina": 3928,
      "Katwijk": 3929,
      "Kau": 3930,
      "Kaukasus": 3931,
      "Kawa": 3932,
      "Kay": 3933,
      "Kaz": 3934,
      "Kazachstan": 3935,
      "Ke": 3936,
      "Kee": 3937,
      "Keep": 3938,
      "Keer": 3939,
      "Kees": 3940,
      "Kei": 3941,
      "Keith": 3942,
      "Keizer": 3943,
      "Kel": 3944,
      "Keller": 3945,
      "Kelly": 3946,
      "Keltisch": 3947,
      "Kem": 3948,
      "Kemp": 3949,
      "Kempen": 3950,
      "Ken": 3951,
      "Kenia": 3952,
      "Keniaans": 3953,
      "Kenmerkend": 3954,
      "Kenn": 3955,
      "Kennedy": 3956,
      "Kennelijk": 3957,
      "Kenneth": 3958,
      "Kennis": 3959,
      "Kenny": 3960,
      "Kent": 3961,
      "Kentucky": 3962,
      "Ker": 3963,
      "Kerk": 3964,
      "Kerkhof": 3965,
      "Kerkrade": 3966,
      "Kern": 3967,
      "Kerry": 3968,
      "Kerst": 3969,
      "Kerstmis": 3970,
      "Kes": 3971,
      "Kessel": 3972,
      "Ketel": 3973,
      "Kett": 3974,
      "Keu": 3975,
      "Keuken": 3976,
      "Keulen": 3977,
      "Keur": 3978,
      "Kevin": 3979,
      "Key": 3980,
      "Keyser": 3981,
      "Kh": 3982,
      "Kha": 3983,
      "Khalid": 3984,
      "Khalil": 3985,
      "Khan": 3986,
      "Khardan": 3987,
      "Kho": 3988,
      "Ki": 3989,
      "Kick": 3990,
      "Kid": 3991,
      "Kiel": 3992,
      "Kies": 3993,
      "Kiev": 3994,
      "Kieze": 3995,
      "Kijk": 3996,
      "Kiki": 3997,
      "Kil": 3998,
      "Kill": 3999,
      "Kim": 4000,
      "Kimberl": 4001,
      "Kin": 4002,
      "Kind": 4003,
      "Kinder": 4004,
      "Kinderen": 4005,
      "King": 4006,
      "Kinshasa": 4007,
      "Kip": 4008,
      "Kir": 4009,
      "Kirch": 4010,
      "Kirk": 4011,
      "Kirsten": 4012,
      "Kiss": 4013,
      "Kit": 4014,
      "Kitty": 4015,
      "Kla": 4016,
      "Klaar": 4017,
      "Klaas": 4018,
      "Klaassen": 4019,
      "Klanten": 4020,
      "Klara": 4021,
      "Klasse": 4022,
      "Klassiek": 4023,
      "Klaus": 4024,
      "Klaver": 4025,
      "Kle": 4026,
      "Klei": 4027,
      "Klein": 4028,
      "Kleine": 4029,
      "Klerk": 4030,
      "Kleur": 4031,
      "Kli": 4032,
      "Klik": 4033,
      "Klim": 4034,
      "Klimaat": 4035,
      "Klink": 4036,
      "Klinkhamer": 4037,
      "Klo": 4038,
      "Klooster": 4039,
      "Klop": 4040,
      "Klu": 4041,
      "Kluivert": 4042,
      "Knack": 4043,
      "Knap": 4044,
      "Kne": 4045,
      "Kni": 4046,
      "Knight": 4047,
      "Kno": 4048,
      "Knokke": 4049,
      "Knoops": 4050,
      "Know": 4051,
      "Knu": 4052,
      "Ko": 4053,
      "Koch": 4054,
      "Koe": 4055,
      "Koek": 4056,
      "Koekelare": 4057,
      "Koel": 4058,
      "Koeman": 4059,
      "Koen": 4060,
      "Koender": 4061,
      "Koerden": 4062,
      "Koerdisch": 4063,
      "Koers": 4064,
      "Koets": 4065,
      "Koeweit": 4066,
      "Koffie": 4067,
      "Kofi": 4068,
      "Kohl": 4069,
      "Kok": 4070,
      "Koksijde": 4071,
      "Kol": 4072,
      "Koll": 4073,
      "Kolonel": 4074,
      "Kom": 4075,
      "Komend": 4076,
      "Kompany": 4077,
      "Komt": 4078,
      "Kon": 4079,
      "Kong": 4080,
      "Koning": 4081,
      "Koningin": 4082,
      "Koninginnedag": 4083,
      "Konings": 4084,
      "Koninklijk": 4085,
      "Koninklijke": 4086,
      "Koninkrijk": 4087,
      "Kontich": 4088,
      "Kooi": 4089,
      "Kook": 4090,
      "Kool": 4091,
      "Koop": 4092,
      "Koophandel": 4093,
      "Koopman": 4094,
      "Koos": 4095,
      "Kooten": 4096,
      "Kop": 4097,
      "Kopenhagen": 4098,
      "Koppel": 4099,
      "Koppen": 4100,
      "Kor": 4101,
      "Koran": 4102,
      "Korea": 4103,
      "Koreaanse": 4104,
      "Korps": 4105,
      "Kort": 4106,
      "Korte": 4107,
      "Kortemark": 4108,
      "Kortrijk": 4109,
      "Kos": 4110,
      "Kosova": 4111,
      "Kosovaars": 4112,
      "Kosovo": 4113,
      "Kost": 4114,
      "Koster": 4115,
      "Kot": 4116,
      "Kou": 4117,
      "Koude": 4118,
      "Kr": 4119,
      "Kra": 4120,
      "Krabb": 4121,
      "Kracht": 4122,
      "Krajicek": 4123,
      "Krakau": 4124,
      "Kramer": 4125,
      "Krant": 4126,
      "Kre": 4127,
      "Kremlin": 4128,
      "Kreta": 4129,
      "Kri": 4130,
      "Krijg": 4131,
      "Krijt": 4132,
      "Krim": 4133,
      "Kris": 4134,
      "Krist": 4135,
      "Kristin": 4136,
      "Kristof": 4137,
      "Kritiek": 4138,
      "Kro": 4139,
      "Kroat": 4140,
      "Kroatisch": 4141,
      "Kroatië": 4142,
      "Kroes": 4143,
      "Krol": 4144,
      "Krom": 4145,
      "Kron": 4146,
      "Kroon": 4147,
      "Kru": 4148,
      "Kruibeke": 4149,
      "Kruid": 4150,
      "Kruij": 4151,
      "Kruis": 4152,
      "Kruishoutem": 4153,
      "Ku": 4154,
      "Kuifje": 4155,
      "Kuij": 4156,
      "Kuip": 4157,
      "Kuiper": 4158,
      "Kul": 4159,
      "Kun": 4160,
      "Kunnen": 4161,
      "Kunst": 4162,
      "Kunsten": 4163,
      "Kunsthal": 4164,
      "Kunt": 4165,
      "Kur": 4166,
      "Kurt": 4167,
      "Kust": 4168,
      "Kuurne": 4169,
      "Kuyper": 4170,
      "Kwa": 4171,
      "Kwaad": 4172,
      "Kwam": 4173,
      "Kwart": 4174,
      "Kwi": 4175,
      "Ky": 4176,
      "Kyle": 4177,
      "Kyoto": 4178,
      "Kö": 4179,
      "Köhler": 4180,
      "Köln": 4181,
      "König": 4182,
      "LA": 4183,
      "LEUVEN": 4184,
      "LONDEN": 4185,
      "LPF": 4186,
      "La": 4187,
      "Laag": 4188,
      "Laan": 4189,
      "Laar": 4190,
      "Laat": 4191,
      "Laatst": 4192,
      "Laatste": 4193,
      "Lab": 4194,
      "Labour": 4195,
      "Lac": 4196,
      "Lach": 4197,
      "Lachend": 4198,
      "Laden": 4199,
      "Ladies": 4200,
      "Lady": 4201,
      "Lag": 4202,
      "Lage": 4203,
      "Lager": 4204,
      "Lagerhuis": 4205,
      "Lago": 4206,
      "Lake": 4207,
      "Lam": 4208,
      "Lamb": 4209,
      "Lambert": 4210,
      "Lambrecht": 4211,
      "Lammers": 4212,
      "Lamp": 4213,
      "Lan": 4214,
      "Lanaken": 4215,
      "Lance": 4216,
      "Lancelot": 4217,
      "Land": 4218,
      "Landbouw": 4219,
      "Landelijk": 4220,
      "Landen": 4221,
      "Landis": 4222,
      "Landkreis": 4223,
      "Landuyt": 4224,
      "Lang": 4225,
      "Lange": 4226,
      "Langs": 4227,
      "Langzaam": 4228,
      "Lanka": 4229,
      "Lanotte": 4230,
      "Lap": 4231,
      "Lar": 4232,
      "Lara": 4233,
      "Larry": 4234,
      "Lars": 4235,
      "Larsson": 4236,
      "Las": 4237,
      "Last": 4238,
      "Lat": 4239,
      "Latem": 4240,
      "Laten": 4241,
      "Later": 4242,
      "Latijn": 4243,
      "Latijns": 4244,
      "Lau": 4245,
      "Laura": 4246,
      "Laure": 4247,
      "Lauren": 4248,
      "Laurenc": 4249,
      "Laurens": 4250,
      "Laurent": 4251,
      "Laurie": 4252,
      "Laurus": 4253,
      "Lausann": 4254,
      "Lauwe": 4255,
      "Lauwers": 4256,
      "Law": 4257,
      "Lawrence": 4258,
      "Lazio": 4259,
      "Le": 4260,
      "Lea": 4261,
      "League": 4262,
      "Leb": 4263,
      "Lebbeke": 4264,
      "Lede": 4265,
      "Leden": 4266,
      "Lee": 4267,
      "Leeds": 4268,
      "Leef": 4269,
      "Leefbaar": 4270,
      "Leefmilieu": 4271,
      "Leeftijd": 4272,
      "Leen": 4273,
      "Leer": 4274,
      "Leerlingen": 4275,
      "Lees": 4276,
      "Leeuw": 4277,
      "Leeuwarde": 4278,
      "Leeuwen": 4279,
      "Lef": 4280,
      "Lefevere": 4281,
      "Leg": 4282,
      "Legend": 4283,
      "Leger": 4284,
      "Legio": 4285,
      "Lehman": 4286,
      "Lei": 4287,
      "Leicester": 4288,
      "Leid": 4289,
      "Leiden": 4290,
      "Leider": 4291,
      "Leidse": 4292,
      "Leigh": 4293,
      "Leipzig": 4294,
      "Lekker": 4295,
      "Lelystad": 4296,
      "Lem": 4297,
      "Lemmens": 4298,
      "Len": 4299,
      "Lena": 4300,
      "Lenin": 4301,
      "Lennik": 4302,
      "Lennon": 4303,
      "Lente": 4304,
      "Leo": 4305,
      "Leon": 4306,
      "Leonard": 4307,
      "Leonardo": 4308,
      "Leonie": 4309,
      "Leontien": 4310,
      "Leopold": 4311,
      "Leopoldsburg": 4312,
      "Lep": 4313,
      "Lepto": 4314,
      "Lernou": 4315,
      "Les": 4316,
      "Leslie": 4317,
      "Let": 4318,
      "Leterme": 4319,
      "Letland": 4320,
      "Letter": 4321,
      "Leuc": 4322,
      "Leuk": 4323,
      "Leur": 4324,
      "Leuven": 4325,
      "Leuvense": 4326,
      "Lev": 4327,
      "Leven": 4328,
      "Leverkusen": 4329,
      "Levi": 4330,
      "Lew": 4331,
      "Lewis": 4332,
      "Lex": 4333,
      "Ley": 4334,
      "Leys": 4335,
      "Li": 4336,
      "Liam": 4337,
      "Lib": 4338,
      "Libane": 4339,
      "Libanon": 4340,
      "Liber": 4341,
      "Liberal": 4342,
      "Liberia": 4343,
      "Libert": 4344,
      "Liberty": 4345,
      "Libisch": 4346,
      "Libië": 4347,
      "Licht": 4348,
      "Lid": 4349,
      "Lieb": 4350,
      "Liechtenstein": 4351,
      "Lied": 4352,
      "Lief": 4353,
      "Liefde": 4354,
      "Liefst": 4355,
      "Lieke": 4356,
      "Lier": 4357,
      "Lierse": 4358,
      "Lies": 4359,
      "Liesbeth": 4360,
      "Lieve": 4361,
      "Liever": 4362,
      "Life": 4363,
      "Lig": 4364,
      "Liga": 4365,
      "Light": 4366,
      "Ligt": 4367,
      "Lij": 4368,
      "Lijk": 4369,
      "Lijn": 4370,
      "Lijst": 4371,
      "Like": 4372,
      "Lili": 4373,
      "Lilian": 4374,
      "Lille": 4375,
      "Lilli": 4376,
      "Lily": 4377,
      "Lim": 4378,
      "Lima": 4379,
      "Limburg": 4380,
      "Limburger": 4381,
      "Limburgse": 4382,
      "Limon": 4383,
      "Lin": 4384,
      "Lincoln": 4385,
      "Lind": 4386,
      "Linda": 4387,
      "Linde": 4388,
      "Linden": 4389,
      "Lindsay": 4390,
      "Line": 4391,
      "Ling": 4392,
      "Link": 4393,
      "Links": 4394,
      "Linnaeus": 4395,
      "Linux": 4396,
      "Lion": 4397,
      "Lionel": 4398,
      "Lip": 4399,
      "Lippens": 4400,
      "Lis": 4401,
      "Lisa": 4402,
      "Lissabon": 4403,
      "Liszt": 4404,
      "Lit": 4405,
      "Literatuur": 4406,
      "Lith": 4407,
      "Litouwen": 4408,
      "Litouws": 4409,
      "Little": 4410,
      "Liv": 4411,
      "Live": 4412,
      "Liverpool": 4413,
      "Livingston": 4414,
      "Liz": 4415,
      "Lizzie": 4416,
      "Lloyd": 4417,
      "Lo": 4418,
      "Lob": 4419,
      "Loc": 4420,
      "Lochristi": 4421,
      "Lock": 4422,
      "Lod": 4423,
      "Lodewijk": 4424,
      "Log": 4425,
      "Logan": 4426,
      "Logisch": 4427,
      "Loire": 4428,
      "Lok": 4429,
      "Lokale": 4430,
      "Lokeren": 4431,
      "Lom": 4432,
      "Lombard": 4433,
      "Lombardije": 4434,
      "Lommel": 4435,
      "Lon": 4436,
      "Londen": 4437,
      "Londens": 4438,
      "Londerzeel": 4439,
      "London": 4440,
      "Long": 4441,
      "Loo": 4442,
      "Loon": 4443,
      "Loop": 4444,
      "Loper": 4445,
      "Lopez": 4446,
      "Lor": 4447,
      "Lord": 4448,
      "Lorenzo": 4449,
      "Lori": 4450,
      "Los": 4451,
      "Lot": 4452,
      "Loterij": 4453,
      "Lotharingen": 4454,
      "Lotte": 4455,
      "Lotto": 4456,
      "Lou": 4457,
      "Louis": 4458,
      "Louise": 4459,
      "Louisian": 4460,
      "Lourdes": 4461,
      "Louvière": 4462,
      "Louvre": 4463,
      "Louw": 4464,
      "Love": 4465,
      "Low": 4466,
      "Lowlands": 4467,
      "Lu": 4468,
      "Lub": 4469,
      "Lubbers": 4470,
      "Luc": 4471,
      "Luca": 4472,
      "Lucas": 4473,
      "Lucht": 4474,
      "Luchthaven": 4475,
      "Luchtvaart": 4476,
      "Lucia": 4477,
      "Luciano": 4478,
      "Lucien": 4479,
      "Lucy": 4480,
      "Lud": 4481,
      "Ludo": 4482,
      "Ludwig": 4483,
      "Lufthansa": 4484,
      "Luigi": 4485,
      "Luik": 4486,
      "Luikse": 4487,
      "Luis": 4488,
      "Luister": 4489,
      "Luitenant": 4490,
      "Luk": 4491,
      "Lukas": 4492,
      "Luke": 4493,
      "Lulu": 4494,
      "Lum": 4495,
      "Lummen": 4496,
      "Luna": 4497,
      "Lund": 4498,
      "Lust": 4499,
      "Lut": 4500,
      "Luther": 4501,
      "Luuk": 4502,
      "Lux": 4503,
      "Luxemburg": 4504,
      "Luxemburgse": 4505,
      "Luy": 4506,
      "Ly": 4507,
      "Lycaen": 4508,
      "Lycos": 4509,
      "Lydia": 4510,
      "Lyn": 4511,
      "Lynch": 4512,
      "Lynley": 4513,
      "Lynn": 4514,
      "Lyon": 4515,
      "Lé": 4516,
      "Léon": 4517,
      "Löw": 4518,
      "MA": 4519,
      "MAR": 4520,
      "ME": 4521,
      "MET": 4522,
      "MH": 4523,
      "MHz": 4524,
      "MI": 4525,
      "MKB": 4526,
      "MO": 4527,
      "MR": 4528,
      "MTV": 4529,
      "Ma": 4530,
      "Maagd": 4531,
      "Maaike": 4532,
      "Maak": 4533,
      "Maakt": 4534,
      "Maan": 4535,
      "Maandag": 4536,
      "Maar": 4537,
      "Maarten": 4538,
      "Maas": 4539,
      "Maaseik": 4540,
      "Maasmechelen": 4541,
      "Maastricht": 4542,
      "Maat": 4543,
      "Maatschappelijk": 4544,
      "Maatschappij": 4545,
      "Mabel": 4546,
      "Mac": 4547,
      "Maccabi": 4548,
      "Macedonisch": 4549,
      "Macedonië": 4550,
      "Mach": 4551,
      "Machelen": 4552,
      "Machine": 4553,
      "Macht": 4554,
      "Mack": 4555,
      "Macro": 4556,
      "Macron": 4557,
      "Mad": 4558,
      "Madagaskar": 4559,
      "Madame": 4560,
      "Madd": 4561,
      "Made": 4562,
      "Madeleine": 4563,
      "Madis": 4564,
      "Madonna": 4565,
      "Madrid": 4566,
      "Maduro": 4567,
      "Maes": 4568,
      "Mag": 4569,
      "Magazine": 4570,
      "Magda": 4571,
      "Magdalena": 4572,
      "Maggie": 4573,
      "Magic": 4574,
      "Magnus": 4575,
      "Mah": 4576,
      "Maha": 4577,
      "Mahler": 4578,
      "Mai": 4579,
      "Maigret": 4580,
      "Mail": 4581,
      "Main": 4582,
      "Maj": 4583,
      "Majesteit": 4584,
      "Major": 4585,
      "Mak": 4586,
      "Mal": 4587,
      "Mala": 4588,
      "Malcolm": 4589,
      "Maldegem": 4590,
      "Male": 4591,
      "Maleisisch": 4592,
      "Maleisië": 4593,
      "Mali": 4594,
      "Malin": 4595,
      "Malko": 4596,
      "Mall": 4597,
      "Mallorca": 4598,
      "Mallory": 4599,
      "Malmö": 4600,
      "Malone": 4601,
      "Malt": 4602,
      "Mam": 4603,
      "Mama": 4604,
      "Mamma": 4605,
      "Man": 4606,
      "Management": 4607,
      "Manager": 4608,
      "Manchester": 4609,
      "Mandel": 4610,
      "Mandela": 4611,
      "Mandy": 4612,
      "Manfred": 4613,
      "Manhattan": 4614,
      "Mann": 4615,
      "Mannen": 4616,
      "Manon": 4617,
      "Mans": 4618,
      "Manuel": 4619,
      "Mao": 4620,
      "Map": 4621,
      "Mar": 4622,
      "Mara": 4623,
      "Maradon": 4624,
      "Marathon": 4625,
      "Marc": 4626,
      "Marcel": 4627,
      "March": 4628,
      "Marco": 4629,
      "Marcus": 4630,
      "Mare": 4631,
      "Marg": 4632,
      "Margaret": 4633,
      "Margaretha": 4634,
      "Margot": 4635,
      "Margriet": 4636,
      "Mari": 4637,
      "Maria": 4638,
      "Marian": 4639,
      "Marianne": 4640,
      "Marie": 4641,
      "Marieke": 4642,
      "Marijke": 4643,
      "Marijn": 4644,
      "Marijnissen": 4645,
      "Marilyn": 4646,
      "Marin": 4647,
      "Marina": 4648,
      "Marine": 4649,
      "Marino": 4650,
      "Mario": 4651,
      "Marion": 4652,
      "Marit": 4653,
      "Marius": 4654,
      "Marië": 4655,
      "Marjolein": 4656,
      "Marjori": 4657,
      "Mark": 4658,
      "Market": 4659,
      "Markt": 4660,
      "Markus": 4661,
      "Marle": 4662,
      "Marleen": 4663,
      "Marlie": 4664,
      "Marlo": 4665,
      "Marnix": 4666,
      "Marokkaan": 4667,
      "Marokkaans": 4668,
      "Marokko": 4669,
      "Mars": 4670,
      "Marseille": 4671,
      "Marsh": 4672,
      "Marshall": 4673,
      "Mart": 4674,
      "Martens": 4675,
      "Martha": 4676,
      "Martijn": 4677,
      "Martin": 4678,
      "Martinson": 4679,
      "Marty": 4680,
      "Marvel": 4681,
      "Marwijk": 4682,
      "Marx": 4683,
      "Mary": 4684,
      "Mas": 4685,
      "Masa": 4686,
      "Mason": 4687,
      "Mass": 4688,
      "Massa": 4689,
      "Massachusett": 4690,
      "Master": 4691,
      "Masters": 4692,
      "Mat": 4693,
      "Match": 4694,
      "Mate": 4695,
      "Math": 4696,
      "Mathew": 4697,
      "Mathias": 4698,
      "Mathieu": 4699,
      "Mathijs": 4700,
      "Mathilde": 4701,
      "Matt": 4702,
      "Matteo": 4703,
      "Matth": 4704,
      "Matthew": 4705,
      "Matthias": 4706,
      "Matthijs": 4707,
      "Matti": 4708,
      "Mau": 4709,
      "Maud": 4710,
      "Maur": 4711,
      "Maureen": 4712,
      "Mauri": 4713,
      "Maurice": 4714,
      "Maurits": 4715,
      "Max": 4716,
      "Maxim": 4717,
      "Maxima": 4718,
      "Maximiliaan": 4719,
      "Maxwell": 4720,
      "May": 4721,
      "Maya": 4722,
      "Maz": 4723,
      "Mc": 4724,
      "McC": 4725,
      "McCain": 4726,
      "McCarthy": 4727,
      "McCartney": 4728,
      "McD": 4729,
      "McDonald": 4730,
      "McEwen": 4731,
      "McG": 4732,
      "McIn": 4733,
      "McK": 4734,
      "McLaren": 4735,
      "McM": 4736,
      "McN": 4737,
      "Me": 4738,
      "Mead": 4739,
      "Mech": 4740,
      "Mechelen": 4741,
      "Mechelse": 4742,
      "Mecklenburg": 4743,
      "Med": 4744,
      "Mede": 4745,
      "Mededinging": 4746,
      "Medewerker": 4747,
      "Media": 4748,
      "Medio": 4749,
      "Medisch": 4750,
      "Medvedev": 4751,
      "Mee": 4752,
      "Meer": 4753,
      "Meerdere": 4754,
      "Meester": 4755,
      "Meeuwen": 4756,
      "Meg": 4757,
      "Mega": 4758,
      "Megach": 4759,
      "Megawat": 4760,
      "Megha": 4761,
      "Mei": 4762,
      "Meij": 4763,
      "Meijer": 4764,
      "Mein": 4765,
      "Meise": 4766,
      "Meisje": 4767,
      "Meisjes": 4768,
      "Mekka": 4769,
      "Mel": 4770,
      "Melan": 4771,
      "Melanie": 4772,
      "Melbourne": 4773,
      "Melchior": 4774,
      "Meldert": 4775,
      "Meli": 4776,
      "Melissa": 4777,
      "Melkert": 4778,
      "Melkweg": 4779,
      "Melle": 4780,
      "Melo": 4781,
      "Melsele": 4782,
      "Mem": 4783,
      "Memorial": 4784,
      "Memphis": 4785,
      "Men": 4786,
      "Mendonck": 4787,
      "Meneer": 4788,
      "Menno": 4789,
      "Mens": 4790,
      "Mensen": 4791,
      "Mensenrechten": 4792,
      "Meppel": 4793,
      "Mer": 4794,
      "Merc": 4795,
      "Mercedes": 4796,
      "Merckx": 4797,
      "Mercury": 4798,
      "Merel": 4799,
      "Merelbeke": 4800,
      "Meri": 4801,
      "Merijn": 4802,
      "Merk": 4803,
      "Merkel": 4804,
      "Merksem": 4805,
      "Merkwaardig": 4806,
      "Merlijn": 4807,
      "Merrill": 4808,
      "Mertens": 4809,
      "Mes": 4810,
      "Meso": 4811,
      "Mess": 4812,
      "Messi": 4813,
      "Met": 4814,
      "Metcalfe": 4815,
      "Metro": 4816,
      "Metropolitan": 4817,
      "Meu": 4818,
      "Meulen": 4819,
      "Meulenhof": 4820,
      "Mevrouw": 4821,
      "Mexicaan": 4822,
      "Mexicaanse": 4823,
      "Mexican": 4824,
      "Mexico": 4825,
      "Mey": 4826,
      "Meyer": 4827,
      "Mi": 4828,
      "Mia": 4829,
      "Miami": 4830,
      "Mich": 4831,
      "Micha": 4832,
      "Michael": 4833,
      "Michail": 4834,
      "Michaël": 4835,
      "Michel": 4836,
      "Michelangelo": 4837,
      "Michelin": 4838,
      "Michelle": 4839,
      "Michiel": 4840,
      "Michiels": 4841,
      "Michigan": 4842,
      "Mick": 4843,
      "Mickey": 4844,
      "Micro": 4845,
      "Microsoft": 4846,
      "Mid": 4847,
      "Middag": 4848,
      "Middel": 4849,
      "Middelburg": 4850,
      "Middeleeuwen": 4851,
      "Middelkerke": 4852,
      "Middellandse": 4853,
      "Midden": 4854,
      "Middle": 4855,
      "Mieke": 4856,
      "Mier": 4857,
      "Mierlo": 4858,
      "Miguel": 4859,
      "Mij": 4860,
      "Mijn": 4861,
      "Mijnheer": 4862,
      "Mik": 4863,
      "Mika": 4864,
      "Mike": 4865,
      "Mil": 4866,
      "Milaan": 4867,
      "Milan": 4868,
      "Miles": 4869,
      "Mili": 4870,
      "Milieu": 4871,
      "Militair": 4872,
      "Militaire": 4873,
      "Miljoenen": 4874,
      "Mill": 4875,
      "Millennium": 4876,
      "Miller": 4877,
      "Milli": 4878,
      "Milo": 4879,
      "Milosevic": 4880,
      "Min": 4881,
      "Mina": 4882,
      "Mind": 4883,
      "Minder": 4884,
      "Minerva": 4885,
      "Mini": 4886,
      "Minister": 4887,
      "Ministerie": 4888,
      "Minne": 4889,
      "Minsk": 4890,
      "Minsten": 4891,
      "Minute": 4892,
      "Mir": 4893,
      "Mira": 4894,
      "Miranda": 4895,
      "Miriam": 4896,
      "Mirjam": 4897,
      "Mirror": 4898,
      "Mis": 4899,
      "Miss": 4900,
      "Mississippi": 4901,
      "Missouri": 4902,
      "Mister": 4903,
      "Mit": 4904,
      "Mitch": 4905,
      "Mitchell": 4906,
      "Mitsubish": 4907,
      "Mladic": 4908,
      "Mma": 4909,
      "Mmm": 4910,
      "Mo": 4911,
      "Mobiel": 4912,
      "Mobile": 4913,
      "Mobiliteit": 4914,
      "Mobutu": 4915,
      "Mocht": 4916,
      "Modder": 4917,
      "Mode": 4918,
      "Model": 4919,
      "Modern": 4920,
      "Moe": 4921,
      "Moeder": 4922,
      "Moeilijk": 4923,
      "Moer": 4924,
      "Moerdijk": 4925,
      "Moerman": 4926,
      "Moeskroen": 4927,
      "Moest": 4928,
      "Moet": 4929,
      "Mog": 4930,
      "Mogelijk": 4931,
      "Moh": 4932,
      "Mohammad": 4933,
      "Mohammed": 4934,
      "Moir": 4935,
      "Mol": 4936,
      "Moldavië": 4937,
      "Molen": 4938,
      "Molenaar": 4939,
      "Molenbeek": 4940,
      "Moll": 4941,
      "Mollem": 4942,
      "Molukken": 4943,
      "Moluks": 4944,
      "Mon": 4945,
      "Mona": 4946,
      "Monaco": 4947,
      "Mond": 4948,
      "Monde": 4949,
      "Mondriaan": 4950,
      "Monetair": 4951,
      "Mongolië": 4952,
      "Mongools": 4953,
      "Monica": 4954,
      "Monique": 4955,
      "Mono": 4956,
      "Monroe": 4957,
      "Monsieur": 4958,
      "Monster": 4959,
      "Mont": 4960,
      "Montalb": 4961,
      "Monte": 4962,
      "Montenegro": 4963,
      "Montgomery": 4964,
      "Montreal": 4965,
      "Monument": 4966,
      "Moody": 4967,
      "Mooi": 4968,
      "Mooie": 4969,
      "Moon": 4970,
      "Moor": 4971,
      "Moord": 4972,
      "Moore": 4973,
      "Moorsel": 4974,
      "Mor": 4975,
      "Mora": 4976,
      "More": 4977,
      "Moreno": 4978,
      "Morga": 4979,
      "Morgan": 4980,
      "Morgen": 4981,
      "Mori": 4982,
      "Morning": 4983,
      "Morris": 4984,
      "Morrison": 4985,
      "Mortier": 4986,
      "Mortsel": 4987,
      "Mos": 4988,
      "Moskou": 4989,
      "Moslim": 4990,
      "Mossad": 4991,
      "Moszk": 4992,
      "Moto": 4993,
      "Motor": 4994,
      "Mott": 4995,
      "Mou": 4996,
      "Mount": 4997,
      "Mountain": 4998,
      "Mourinho": 4999,
      "Moussa": 5000,
      "Movie": 5001,
      "Mozambique": 5002,
      "Mozart": 5003,
      "Mozes": 5004,
      "Mr": 5005,
      "Mu": 5006,
      "Mueller": 5007,
      "Muide": 5008,
      "Mul": 5009,
      "Mulder": 5010,
      "Mull": 5011,
      "Muller": 5012,
      "Multi": 5013,
      "Mun": 5014,
      "Mund": 5015,
      "Munt": 5016,
      "Mur": 5017,
      "Murat": 5018,
      "Murdoch": 5019,
      "Murphy": 5020,
      "Murray": 5021,
      "Mus": 5022,
      "Museeuw": 5023,
      "Museum": 5024,
      "Musharraf": 5025,
      "Music": 5026,
      "Musk": 5027,
      "Mussolini": 5028,
      "Mustafa": 5029,
      "Musée": 5030,
      "Mut": 5031,
      "Muur": 5032,
      "Muziek": 5033,
      "My": 5034,
      "Myanmar": 5035,
      "Myr": 5036,
      "Myrm": 5037,
      "Myro": 5038,
      "Mé": 5039,
      "Mölle": 5040,
      "NAC": 5041,
      "NAM": 5042,
      "NASA": 5043,
      "NAVO": 5044,
      "NBA": 5045,
      "NBC": 5046,
      "NCRV": 5047,
      "NEC": 5048,
      "NEW": 5049,
      "NGC": 5050,
      "NIET": 5051,
      "NK": 5052,
      "NL": 5053,
      "NMBS": 5054,
      "NOC": 5055,
      "NOS": 5056,
      "NPS": 5057,
      "NRC": 5058,
      "NS": 5059,
      "NSF": 5060,
      "NU": 5061,
      "NUTS": 5062,
      "NV": 5063,
      "Na": 5064,
      "Naam": 5065,
      "Naar": 5066,
      "Naast": 5067,
      "Nacht": 5068,
      "Nacional": 5069,
      "Nada": 5070,
      "Nadal": 5071,
      "Nadia": 5072,
      "Nadine": 5073,
      "Nagel": 5074,
      "Nairob": 5075,
      "Namen": 5076,
      "Namibië": 5077,
      "Nancy": 5078,
      "Nantes": 5079,
      "Napels": 5080,
      "Napoleon": 5081,
      "Napoli": 5082,
      "Nas": 5083,
      "Nashville": 5084,
      "Nassau": 5085,
      "Natalie": 5086,
      "Natash": 5087,
      "Nathalie": 5088,
      "Nathan": 5089,
      "Naties": 5090,
      "Nationaal": 5091,
      "National": 5092,
      "Nationale": 5093,
      "Nations": 5094,
      "Natural": 5095,
      "Nature": 5096,
      "Natuur": 5097,
      "Natuurlijk": 5098,
      "Natuurmonument": 5099,
      "Nauwelijks": 5100,
      "Navarr": 5101,
      "Navo": 5102,
      "Nazareth": 5103,
      "Ne": 5104,
      "Neb": 5105,
      "Ned": 5106,
      "Neder": 5107,
      "Nederland": 5108,
      "Nederlanden": 5109,
      "Nederlander": 5110,
      "Nederlanders": 5111,
      "Nederlands": 5112,
      "Nederlandsche": 5113,
      "Nederlandse": 5114,
      "Nederlandstalig": 5115,
      "Nedersaks": 5116,
      "Nee": 5117,
      "Neem": 5118,
      "Neen": 5119,
      "Neerpelt": 5120,
      "Nefer": 5121,
      "Neg": 5122,
      "Negen": 5123,
      "Neil": 5124,
      "Nel": 5125,
      "Nell": 5126,
      "Nelson": 5127,
      "Nem": 5128,
      "Neo": 5129,
      "Neotropisch": 5130,
      "Nep": 5131,
      "Nepal": 5132,
      "Neptunus": 5133,
      "Nere": 5134,
      "Nergens": 5135,
      "Nero": 5136,
      "Nest": 5137,
      "Net": 5138,
      "Netanyahu": 5139,
      "Netflix": 5140,
      "Netwerk": 5141,
      "Network": 5142,
      "Neu": 5143,
      "Neur": 5144,
      "Neurenberg": 5145,
      "Nev": 5146,
      "Nevada": 5147,
      "Nevel": 5148,
      "Never": 5149,
      "New": 5150,
      "Newcastle": 5151,
      "News": 5152,
      "Newton": 5153,
      "Next": 5154,
      "Neyma": 5155,
      "Ni": 5156,
      "Nic": 5157,
      "Nicaragua": 5158,
      "Nicc": 5159,
      "Nice": 5160,
      "Nicholas": 5161,
      "Nick": 5162,
      "Nicky": 5163,
      "Nico": 5164,
      "Nicola": 5165,
      "Nicolaas": 5166,
      "Nicolas": 5167,
      "Nicole": 5168,
      "Nie": 5169,
      "Niels": 5170,
      "Niemand": 5171,
      "Niet": 5172,
      "Niets": 5173,
      "Nietzsche": 5174,
      "Nieuw": 5175,
      "Nieuwe": 5176,
      "Nieuwegein": 5177,
      "Nieuwenhui": 5178,
      "Nieuwjaar": 5179,
      "Nieuwkerk": 5180,
      "Nieuwpoort": 5181,
      "Nieuws": 5182,
      "Nieuwsblad": 5183,
      "Nieuwsgierig": 5184,
      "Nigel": 5185,
      "Nigeria": 5186,
      "Nigeriaans": 5187,
      "Night": 5188,
      "Nij": 5189,
      "Nijl": 5190,
      "Nijmeegse": 5191,
      "Nijmegen": 5192,
      "Nijs": 5193,
      "Nijvel": 5194,
      "Nike": 5195,
      "Niki": 5196,
      "Nikke": 5197,
      "Nikki": 5198,
      "Niklaas": 5199,
      "Niko": 5200,
      "Nikola": 5201,
      "Niks": 5202,
      "Nils": 5203,
      "Nim": 5204,
      "Nina": 5205,
      "Nino": 5206,
      "Ninove": 5207,
      "Nintendo": 5208,
      "Nissan": 5209,
      "Nistelrooij": 5210,
      "Nistelrooy": 5211,
      "Nixon": 5212,
      "No": 5213,
      "Noah": 5214,
      "Nobel": 5215,
      "Nobelprijs": 5216,
      "Noch": 5217,
      "Noctu": 5218,
      "Noem": 5219,
      "Nog": 5220,
      "Noir": 5221,
      "Nol": 5222,
      "Nomad": 5223,
      "Non": 5224,
      "Noo": 5225,
      "Nood": 5226,
      "Nooit": 5227,
      "Noor": 5228,
      "Noord": 5229,
      "Noordelijke": 5230,
      "Noorder": 5231,
      "Noordoost": 5232,
      "Noordwijk": 5233,
      "Noordzee": 5234,
      "Noors": 5235,
      "Noorwegen": 5236,
      "Nor": 5237,
      "Nora": 5238,
      "Norbert": 5239,
      "Nord": 5240,
      "Norfolk": 5241,
      "Normaal": 5242,
      "Norman": 5243,
      "Normandië": 5244,
      "North": 5245,
      "Norton": 5246,
      "Not": 5247,
      "Notodont": 5248,
      "Notre": 5249,
      "Nou": 5250,
      "Nouvelle": 5251,
      "Nov": 5252,
      "Nova": 5253,
      "November": 5254,
      "Novi": 5255,
      "Now": 5256,
      "Noël": 5257,
      "Nu": 5258,
      "Nummer": 5259,
      "Ny": 5260,
      "Nympha": 5261,
      "Nys": 5262,
      "OCMW": 5263,
      "OM": 5264,
      "ONDER": 5265,
      "OOSTENDE": 5266,
      "OP": 5267,
      "OVER": 5268,
      "Oak": 5269,
      "Ob": 5270,
      "Obama": 5271,
      "Ober": 5272,
      "Occitani": 5273,
      "Oceaan": 5274,
      "Ocean": 5275,
      "Och": 5276,
      "Ochtend": 5277,
      "Oct": 5278,
      "Octavi": 5279,
      "Odysse": 5280,
      "Oecophor": 5281,
      "Oef": 5282,
      "Oegand": 5283,
      "Oei": 5284,
      "Oek": 5285,
      "Oekraïens": 5286,
      "Oekraïne": 5287,
      "Oezbekistan": 5288,
      "Of": 5289,
      "Off": 5290,
      "Office": 5291,
      "Officier": 5292,
      "Og": 5293,
      "Oh": 5294,
      "Ohio": 5295,
      "Ok": 5296,
      "Oktober": 5297,
      "Oké": 5298,
      "Ol": 5299,
      "Olaf": 5300,
      "Old": 5301,
      "Olga": 5302,
      "Olie": 5303,
      "Oliv": 5304,
      "Oliver": 5305,
      "Olivia": 5306,
      "Olivier": 5307,
      "Olsen": 5308,
      "Olympi": 5309,
      "Olympia": 5310,
      "Olympic": 5311,
      "Olympisch": 5312,
      "Olympische": 5313,
      "Om": 5314,
      "Oma": 5315,
      "Omar": 5316,
      "Omdat": 5317,
      "Omega": 5318,
      "Omni": 5319,
      "Omroep": 5320,
      "Omstreek": 5321,
      "On": 5322,
      "Onafhankelijk": 5323,
      "Onbe": 5324,
      "Onbekend": 5325,
      "Ondanks": 5326,
      "Onder": 5327,
      "Ondernemers": 5328,
      "Onderneming": 5329,
      "Onderstaand": 5330,
      "Ondertitel": 5331,
      "Ondertuss": 5332,
      "Onderwijs": 5333,
      "Onderzoek": 5334,
      "Onderzoeker": 5335,
      "Onduidelijk": 5336,
      "One": 5337,
      "Onge": 5338,
      "Onkelinx": 5339,
      "Onlang": 5340,
      "Online": 5341,
      "Onmiddellijk": 5342,
      "Onmogelijk": 5343,
      "Onno": 5344,
      "Ons": 5345,
      "Ont": 5346,
      "Ontvang": 5347,
      "Ontwikkeling": 5348,
      "Onver": 5349,
      "Onwillekeurig": 5350,
      "Onze": 5351,
      "Onzin": 5352,
      "Oog": 5353,
      "Ooit": 5354,
      "Ook": 5355,
      "Oom": 5356,
      "Oor": 5357,
      "Oorlog": 5358,
      "Oorspronkelijk": 5359,
      "Oost": 5360,
      "Oostblok": 5361,
      "Oosten": 5362,
      "Oostende": 5363,
      "Oostendse": 5364,
      "Oostenrijk": 5365,
      "Oostenrijker": 5366,
      "Oostenrijks": 5367,
      "Ooster": 5368,
      "Oostkamp": 5369,
      "Oostzee": 5370,
      "Op": 5371,
      "Opeens": 5372,
      "Opel": 5373,
      "Open": 5374,
      "Openbaar": 5375,
      "Openbare": 5376,
      "Opera": 5377,
      "Operatie": 5378,
      "Opmerkelijk": 5379,
      "Opper": 5380,
      "Opsporing": 5381,
      "Opvallend": 5382,
      "Or": 5383,
      "Orange": 5384,
      "Oranje": 5385,
      "Orb": 5386,
      "Orchestra": 5387,
      "Orde": 5388,
      "Ordening": 5389,
      "Ordina": 5390,
      "Oregon": 5391,
      "Organ": 5392,
      "Organisatie": 5393,
      "Ori": 5394,
      "Origin": 5395,
      "Oriëntaals": 5396,
      "Orkest": 5397,
      "Orlando": 5398,
      "Orleans": 5399,
      "Orléans": 5400,
      "Oro": 5401,
      "Ortho": 5402,
      "Os": 5403,
      "Osaka": 5404,
      "Osama": 5405,
      "Oscar": 5406,
      "Oskar": 5407,
      "Oslo": 5408,
      "Oss": 5409,
      "Ost": 5410,
      "Ott": 5411,
      "Otter": 5412,
      "Otto": 5413,
      "Ottomaans": 5414,
      "Ou": 5415,
      "Oud": 5416,
      "Oude": 5417,
      "Oudenaarde": 5418,
      "Ouder": 5419,
      "Ouders": 5420,
      "Oudkerk": 5421,
      "Out": 5422,
      "Ouwe": 5423,
      "Over": 5424,
      "Overal": 5425,
      "Overeenkomst": 5426,
      "Overigens": 5427,
      "Overijse": 5428,
      "Overijssel": 5429,
      "Overpelt": 5430,
      "Overwegend": 5431,
      "Owen": 5432,
      "Oxfam": 5433,
      "Oxford": 5434,
      "Oxy": 5435,
      "PA": 5436,
      "PB": 5437,
      "PCM": 5438,
      "PKK": 5439,
      "PRI": 5440,
      "PROVINCIALE": 5441,
      "PS": 5442,
      "PSV": 5443,
      "PVV": 5444,
      "Pa": 5445,
      "Paarden": 5446,
      "Paars": 5447,
      "Paas": 5448,
      "Pac": 5449,
      "Pacific": 5450,
      "Packard": 5451,
      "Pad": 5452,
      "Pagin": 5453,
      "Paige": 5454,
      "Paint": 5455,
      "Pak": 5456,
      "Pakistaans": 5457,
      "Pakistan": 5458,
      "Pal": 5459,
      "Pala": 5460,
      "Palace": 5461,
      "Palearctisch": 5462,
      "Paleis": 5463,
      "Palermo": 5464,
      "Palestijn": 5465,
      "Palestijnen": 5466,
      "Palestijnse": 5467,
      "Palestina": 5468,
      "Pall": 5469,
      "Palm": 5470,
      "Palma": 5471,
      "Palmer": 5472,
      "Palts": 5473,
      "Pam": 5474,
      "Pamel": 5475,
      "Pan": 5476,
      "Panama": 5477,
      "Pandoer": 5478,
      "Panne": 5479,
      "Panorama": 5480,
      "Paolo": 5481,
      "Pap": 5482,
      "Papa": 5483,
      "Papoea": 5484,
      "Par": 5485,
      "Para": 5486,
      "Parade": 5487,
      "Paradijs": 5488,
      "Paradise": 5489,
      "Paradiso": 5490,
      "Paraguay": 5491,
      "Paramar": 5492,
      "Pardon": 5493,
      "Parijs": 5494,
      "Paris": 5495,
      "Park": 5496,
      "Parker": 5497,
      "Parkinson": 5498,
      "Parlement": 5499,
      "Parma": 5500,
      "Parool": 5501,
      "Part": 5502,
      "Parti": 5503,
      "Partij": 5504,
      "Partners": 5505,
      "Party": 5506,
      "Pas": 5507,
      "Pascal": 5508,
      "Passa": 5509,
      "Passion": 5510,
      "Pastoor": 5511,
      "Pat": 5512,
      "Pater": 5513,
      "Patijn": 5514,
      "Patiënten": 5515,
      "Patri": 5516,
      "Patricia": 5517,
      "Patrick": 5518,
      "Patriot": 5519,
      "Patro": 5520,
      "Patroon": 5521,
      "Patty": 5522,
      "Paul": 5523,
      "Paula": 5524,
      "Pauline": 5525,
      "Paulo": 5526,
      "Paulus": 5527,
      "Paus": 5528,
      "Pauw": 5529,
      "Pauwels": 5530,
      "Pavel": 5531,
      "Pay": 5532,
      "Pe": 5533,
      "Pearl": 5534,
      "Pedro": 5535,
      "Peel": 5536,
      "Peer": 5537,
      "Peeters": 5538,
      "Pegg": 5539,
      "Pei": 5540,
      "Peking": 5541,
      "Pel": 5542,
      "Pell": 5543,
      "Pen": 5544,
      "Pendergast": 5545,
      "Penelope": 5546,
      "Penn": 5547,
      "Pennsylvania": 5548,
      "Penny": 5549,
      "Pensioen": 5550,
      "Pentagon": 5551,
      "People": 5552,
      "Pep": 5553,
      "Peper": 5554,
      "Pepijn": 5555,
      "Pepsi": 5556,
      "Per": 5557,
      "Percy": 5558,
      "Pereir": 5559,
      "Perez": 5560,
      "Perfect": 5561,
      "Peri": 5562,
      "Perkament": 5563,
      "Permanent": 5564,
      "Perry": 5565,
      "Pers": 5566,
      "Persi": 5567,
      "Personeel": 5568,
      "Personen": 5569,
      "Persoonlijk": 5570,
      "Persoons": 5571,
      "Peru": 5572,
      "Perzische": 5573,
      "Perzië": 5574,
      "Pet": 5575,
      "Pete": 5576,
      "Petegem": 5577,
      "Peter": 5578,
      "Peters": 5579,
      "Petersburg": 5580,
      "Petit": 5581,
      "Petr": 5582,
      "Petra": 5583,
      "Petro": 5584,
      "Petrov": 5585,
      "Petrus": 5586,
      "Peugeot": 5587,
      "Peyr": 5588,
      "Pf": 5589,
      "Ph": 5590,
      "Pha": 5591,
      "Pharma": 5592,
      "Phil": 5593,
      "Philadelphia": 5594,
      "Philharmoni": 5595,
      "Philip": 5596,
      "Philipp": 5597,
      "Philippe": 5598,
      "Philips": 5599,
      "Phillip": 5600,
      "Pho": 5601,
      "Phoebe": 5602,
      "Phoenix": 5603,
      "Photo": 5604,
      "Phyllo": 5605,
      "Pi": 5606,
      "Pia": 5607,
      "Pic": 5608,
      "Picasso": 5609,
      "Pick": 5610,
      "Picture": 5611,
      "Pie": 5612,
      "Pieper": 5613,
      "Pier": 5614,
      "Pierce": 5615,
      "Pierre": 5616,
      "Piet": 5617,
      "Pieter": 5618,
      "Pieters": 5619,
      "Pietje": 5620,
      "Pietro": 5621,
      "Pijl": 5622,
      "Pijn": 5623,
      "Pijp": 5624,
      "Pike": 5625,
      "Pil": 5626,
      "Pim": 5627,
      "Pin": 5628,
      "Pink": 5629,
      "Pinkpop": 5630,
      "Pinkster": 5631,
      "Pinoch": 5632,
      "Pinte": 5633,
      "Pip": 5634,
      "Piper": 5635,
      "Pipp": 5636,
      "Pir": 5637,
      "Pirate": 5638,
      "Pisto": 5639,
      "Pit": 5640,
      "Pitt": 5641,
      "Pittsburgh": 5642,
      "Pla": 5643,
      "Plaats": 5644,
      "Place": 5645,
      "Plan": 5646,
      "Planet": 5647,
      "Plant": 5648,
      "Plas": 5649,
      "Plasterk": 5650,
      "Plat": 5651,
      "Platform": 5652,
      "Plato": 5653,
      "Platy": 5654,
      "Play": 5655,
      "PlayStation": 5656,
      "Playboy": 5657,
      "Plaza": 5658,
      "Ple": 5659,
      "Pleas": 5660,
      "Plein": 5661,
      "Pli": 5662,
      "Plo": 5663,
      "Ploeg": 5664,
      "Plots": 5665,
      "Plotseling": 5666,
      "Plu": 5667,
      "Plus": 5668,
      "Pluto": 5669,
      "Po": 5670,
      "Pod": 5671,
      "Podium": 5672,
      "Poe": 5673,
      "Poel": 5674,
      "Poetin": 5675,
      "Point": 5676,
      "Poirot": 5677,
      "Pokémon": 5678,
      "Pol": 5679,
      "Polak": 5680,
      "Polder": 5681,
      "Polen": 5682,
      "Poli": 5683,
      "Police": 5684,
      "Politic": 5685,
      "Politici": 5686,
      "Politie": 5687,
      "Politiek": 5688,
      "Poll": 5689,
      "Polo": 5690,
      "Poly": 5691,
      "Pom": 5692,
      "Pomp": 5693,
      "Pon": 5694,
      "Pont": 5695,
      "Pool": 5696,
      "Pools": 5697,
      "Poolse": 5698,
      "Poort": 5699,
      "Pop": 5700,
      "Poperinge": 5701,
      "Popp": 5702,
      "Por": 5703,
      "Porsche": 5704,
      "Port": 5705,
      "Porto": 5706,
      "Portret": 5707,
      "Portugal": 5708,
      "Portugees": 5709,
      "Portuges": 5710,
      "Portugezen": 5711,
      "Positie": 5712,
      "Post": 5713,
      "Postma": 5714,
      "Pot": 5715,
      "Potter": 5716,
      "Pou": 5717,
      "Poul": 5718,
      "Pour": 5719,
      "Powell": 5720,
      "Power": 5721,
      "Poëzie": 5722,
      "Pr": 5723,
      "Pra": 5724,
      "Praag": 5725,
      "Praat": 5726,
      "Prachtig": 5727,
      "Pre": 5728,
      "Precie": 5729,
      "Premier": 5730,
      "Present": 5731,
      "President": 5732,
      "Presley": 5733,
      "Press": 5734,
      "Prest": 5735,
      "Pri": 5736,
      "Price": 5737,
      "Prijs": 5738,
      "Prima": 5739,
      "Primer": 5740,
      "Prince": 5741,
      "Princip": 5742,
      "Prins": 5743,
      "Prinsengracht": 5744,
      "Prinses": 5745,
      "Prinsjesdag": 5746,
      "Private": 5747,
      "Privé": 5748,
      "Prix": 5749,
      "Pro": 5750,
      "ProRa": 5751,
      "Probeer": 5752,
      "Probleem": 5753,
      "Problem": 5754,
      "Proce": 5755,
      "Prodi": 5756,
      "Product": 5757,
      "Productie": 5758,
      "Production": 5759,
      "Prof": 5760,
      "Professor": 5761,
      "Programma": 5762,
      "Project": 5763,
      "Prometheus": 5764,
      "Pronk": 5765,
      "Prosper": 5766,
      "Protest": 5767,
      "Proto": 5768,
      "Protocol": 5769,
      "Proust": 5770,
      "Prov": 5771,
      "Provence": 5772,
      "Provinciale": 5773,
      "Provincie": 5774,
      "Pru": 5775,
      "Prue": 5776,
      "Pruisen": 5777,
      "Pruisisch": 5778,
      "Pré": 5779,
      "Pseud": 5780,
      "Pseudo": 5781,
      "Psych": 5782,
      "Psycho": 5783,
      "Psycholog": 5784,
      "Ptero": 5785,
      "Pu": 5786,
      "Public": 5787,
      "Publicatie": 5788,
      "Publiek": 5789,
      "Puc": 5790,
      "Puerto": 5791,
      "Pul": 5792,
      "Punt": 5793,
      "Pur": 5794,
      "Purmerend": 5795,
      "Put": 5796,
      "Putte": 5797,
      "Putten": 5798,
      "PvdA": 5799,
      "Py": 5800,
      "Pyr": 5801,
      "Pyral": 5802,
      "Pyramid": 5803,
      "Pyreneeën": 5804,
      "Pé": 5805,
      "RAAD": 5806,
      "RADIO": 5807,
      "RAI": 5808,
      "RBC": 5809,
      "RC": 5810,
      "RE": 5811,
      "RIVM": 5812,
      "RKC": 5813,
      "ROTTERDAM": 5814,
      "RTL": 5815,
      "RTV": 5816,
      "RUIMTE": 5817,
      "RWD": 5818,
      "Ra": 5819,
      "Raad": 5820,
      "Raaij": 5821,
      "Raak": 5822,
      "Rab": 5823,
      "Rabb": 5824,
      "Rabo": 5825,
      "Rabobank": 5826,
      "Race": 5827,
      "Rachel": 5828,
      "Racing": 5829,
      "Rad": 5830,
      "Radboud": 5831,
      "Radio": 5832,
      "Raf": 5833,
      "Rafael": 5834,
      "Rag": 5835,
      "Rah": 5836,
      "Rai": 5837,
      "Rail": 5838,
      "Rain": 5839,
      "Rak": 5840,
      "Ralf": 5841,
      "Rally": 5842,
      "Ralph": 5843,
      "Ram": 5844,
      "Rama": 5845,
      "Ramalla": 5846,
      "Rambo": 5847,
      "Ramo": 5848,
      "Ramon": 5849,
      "Rams": 5850,
      "Ran": 5851,
      "Rand": 5852,
      "Randall": 5853,
      "Randstad": 5854,
      "Randy": 5855,
      "Rang": 5856,
      "Rangers": 5857,
      "Ranst": 5858,
      "Raoul": 5859,
      "Rap": 5860,
      "Rapid": 5861,
      "Ras": 5862,
      "Rasmussen": 5863,
      "Rat": 5864,
      "Rath": 5865,
      "Rau": 5866,
      "Rav": 5867,
      "Ravel": 5868,
      "Raven": 5869,
      "Raw": 5870,
      "Ray": 5871,
      "Raymond": 5872,
      "Raz": 5873,
      "Re": 5874,
      "Reach": 5875,
      "Read": 5876,
      "Reagan": 5877,
      "Real": 5878,
      "Rebec": 5879,
      "Rebecc": 5880,
      "Rebel": 5881,
      "Rec": 5882,
      "Recent": 5883,
      "Recep": 5884,
      "Recherche": 5885,
      "Rechercheur": 5886,
      "Recht": 5887,
      "Rechter": 5888,
      "Rechts": 5889,
      "Reclame": 5890,
      "Record": 5891,
      "Records": 5892,
      "Red": 5893,
      "Ree": 5894,
      "Reed": 5895,
      "Reeds": 5896,
      "Reeve": 5897,
      "Ref": 5898,
      "Reg": 5899,
      "Regel": 5900,
      "Regelmatig": 5901,
      "Regen": 5902,
      "Regering": 5903,
      "Reggi": 5904,
      "Regi": 5905,
      "Regie": 5906,
      "Regina": 5907,
      "Reginald": 5908,
      "Regio": 5909,
      "Regional": 5910,
      "Regisseur": 5911,
      "Reich": 5912,
      "Reid": 5913,
      "Reij": 5914,
      "Reilly": 5915,
      "Rein": 5916,
      "Reinier": 5917,
      "Reis": 5918,
      "Reit": 5919,
      "Reizen": 5920,
      "Reiziger": 5921,
      "Reken": 5922,
      "Rekenkamer": 5923,
      "Religie": 5924,
      "Rem": 5925,
      "Rembrandt": 5926,
      "Remc": 5927,
      "Remkes": 5928,
      "Remo": 5929,
      "Ren": 5930,
      "Renaissance": 5931,
      "Renat": 5932,
      "Renault": 5933,
      "René": 5934,
      "Rep": 5935,
      "Republiek": 5936,
      "Republikein": 5937,
      "Republikeins": 5938,
      "Res": 5939,
      "Research": 5940,
      "Reserve": 5941,
      "Resolutie": 5942,
      "Restaurant": 5943,
      "Reuben": 5944,
      "Reuters": 5945,
      "Reve": 5946,
      "Review": 5947,
      "Revolutie": 5948,
      "Revolutionair": 5949,
      "Revu": 5950,
      "Rex": 5951,
      "Rey": 5952,
      "Reyn": 5953,
      "Reynders": 5954,
      "Reynolds": 5955,
      "Rh": 5956,
      "Rhan": 5957,
      "Rhein": 5958,
      "Rhi": 5959,
      "Rhod": 5960,
      "Rhodan": 5961,
      "Rhy": 5962,
      "Rhyme": 5963,
      "Ri": 5964,
      "Ria": 5965,
      "Rib": 5966,
      "Rica": 5967,
      "Ricard": 5968,
      "Ricciard": 5969,
      "Rice": 5970,
      "Rich": 5971,
      "Richard": 5972,
      "Richie": 5973,
      "Richmond": 5974,
      "Richter": 5975,
      "Richtlijn": 5976,
      "Rick": 5977,
      "Ricky": 5978,
      "Rico": 5979,
      "Ridder": 5980,
      "Ridge": 5981,
      "Rie": 5982,
      "Riek": 5983,
      "Riet": 5984,
      "Rietveld": 5985,
      "Right": 5986,
      "Rij": 5987,
      "Rijd": 5988,
      "Rijk": 5989,
      "Rijkaard": 5990,
      "Rijks": 5991,
      "Rijksmuseum": 5992,
      "Rijkswaterstaat": 5993,
      "Rijn": 5994,
      "Rijnland": 5995,
      "Rijnmond": 5996,
      "Rijsel": 5997,
      "Rijswijk": 5998,
      "Rik": 5999,
      "Rin": 6000,
      "Ring": 6001,
      "Rio": 6002,
      "Ripley": 6003,
      "Ris": 6004,
      "Rita": 6005,
      "Riv": 6006,
      "River": 6007,
      "Rivier": 6008,
      "Ro": 6009,
      "Road": 6010,
      "Rob": 6011,
      "Robb": 6012,
      "Robben": 6013,
      "Robbert": 6014,
      "Robbie": 6015,
      "Robeco": 6016,
      "Robert": 6017,
      "Robin": 6018,
      "Robinson": 6019,
      "Robot": 6020,
      "Roche": 6021,
      "Rochus": 6022,
      "Rock": 6023,
      "Rod": 6024,
      "Roda": 6025,
      "Roddick": 6026,
      "Rode": 6027,
      "Rodrig": 6028,
      "Rodriguez": 6029,
      "Roe": 6030,
      "Roel": 6031,
      "Roeland": 6032,
      "Roelof": 6033,
      "Roemeen": 6034,
      "Roemeense": 6035,
      "Roemenen": 6036,
      "Roemenië": 6037,
      "Roep": 6038,
      "Roer": 6039,
      "Roermond": 6040,
      "Roeselare": 6041,
      "Rog": 6042,
      "Roger": 6043,
      "Rogge": 6044,
      "Rogier": 6045,
      "Roh": 6046,
      "Roi": 6047,
      "Rok": 6048,
      "Rol": 6049,
      "Roland": 6050,
      "Rolf": 6051,
      "Roll": 6052,
      "Rolling": 6053,
      "Rom": 6054,
      "Roma": 6055,
      "Roman": 6056,
      "Romano": 6057,
      "Rombouts": 6058,
      "Rome": 6059,
      "Romeinen": 6060,
      "Romeins": 6061,
      "Romeinse": 6062,
      "Romme": 6063,
      "Rompuy": 6064,
      "Ron": 6065,
      "Ronald": 6066,
      "Ronaldo": 6067,
      "Rond": 6068,
      "Ronde": 6069,
      "Ronnie": 6070,
      "Ronny": 6071,
      "Ronse": 6072,
      "Roo": 6073,
      "Rood": 6074,
      "Rooij": 6075,
      "Room": 6076,
      "Rooms": 6077,
      "Roos": 6078,
      "Roosendaal": 6079,
      "Roosevelt": 6080,
      "Rooy": 6081,
      "Ror": 6082,
      "Ros": 6083,
      "Rosa": 6084,
      "Rose": 6085,
      "Rosemar": 6086,
      "Rosen": 6087,
      "Rosenmöller": 6088,
      "Rosie": 6089,
      "Rosmalen": 6090,
      "Ross": 6091,
      "Rossi": 6092,
      "Rot": 6093,
      "Roth": 6094,
      "Rothschild": 6095,
      "Rotterdam": 6096,
      "Rotterdammer": 6097,
      "Rotterdamse": 6098,
      "Rou": 6099,
      "Roubaix": 6100,
      "Rouge": 6101,
      "Rousse": 6102,
      "Rousseau": 6103,
      "Route": 6104,
      "Rover": 6105,
      "Row": 6106,
      "Rowan": 6107,
      "Rox": 6108,
      "Roy": 6109,
      "Royal": 6110,
      "Royce": 6111,
      "Rozen": 6112,
      "Ru": 6113,
      "Ruben": 6114,
      "Rubi": 6115,
      "Ruby": 6116,
      "Rud": 6117,
      "Rudi": 6118,
      "Rudolf": 6119,
      "Rudy": 6120,
      "Rue": 6121,
      "Rufus": 6122,
      "Rui": 6123,
      "Ruim": 6124,
      "Ruimte": 6125,
      "Ruimtelijke": 6126,
      "Ruiter": 6127,
      "Ruiz": 6128,
      "Rum": 6129,
      "Rumsfeld": 6130,
      "Run": 6131,
      "Rupel": 6132,
      "Rupert": 6133,
      "Rupo": 6134,
      "Rus": 6135,
      "Rusland": 6136,
      "Russell": 6137,
      "Russen": 6138,
      "Russin": 6139,
      "Russisch": 6140,
      "Russische": 6141,
      "Rust": 6142,
      "Rustig": 6143,
      "Rutger": 6144,
      "Ruth": 6145,
      "Rutte": 6146,
      "Ruud": 6147,
      "Ruyter": 6148,
      "Rwanda": 6149,
      "Rwande": 6150,
      "Ry": 6151,
      "Ryan": 6152,
      "Ryanair": 6153,
      "Ré": 6154,
      "Régi": 6155,
      "Rö": 6156,
      "SA": 6157,
      "SBS": 6158,
      "SBS6": 6159,
      "SC": 6160,
      "SCH": 6161,
      "SEC": 6162,
      "SER": 6163,
      "SGP": 6164,
      "SK": 6165,
      "SP": 6166,
      "SPD": 6167,
      "SS": 6168,
      "ST": 6169,
      "STAND": 6170,
      "STVV": 6171,
      "SV": 6172,
      "Sa": 6173,
      "Saar": 6174,
      "Sab": 6175,
      "Saba": 6176,
      "Sabena": 6177,
      "Sabi": 6178,
      "Sabine": 6179,
      "Sabrin": 6180,
      "Sacha": 6181,
      "Sachs": 6182,
      "Sacr": 6183,
      "Sad": 6184,
      "Saddam": 6185,
      "Saedel": 6186,
      "Saer": 6187,
      "Safe": 6188,
      "Safi": 6189,
      "Sag": 6190,
      "Saga": 6191,
      "Sah": 6192,
      "Sahara": 6193,
      "Sai": 6194,
      "Sail": 6195,
      "Saint": 6196,
      "Sak": 6197,
      "Saksen": 6198,
      "Saksisch": 6199,
      "Sal": 6200,
      "Sala": 6201,
      "Salamander": 6202,
      "Sali": 6203,
      "Sally": 6204,
      "Salomon": 6205,
      "Salon": 6206,
      "Salt": 6207,
      "Salv": 6208,
      "Salvador": 6209,
      "Salzburg": 6210,
      "Sam": 6211,
      "Samar": 6212,
      "Samen": 6213,
      "Samenwerking": 6214,
      "Samir": 6215,
      "Samso": 6216,
      "Samsung": 6217,
      "Samuel": 6218,
      "San": 6219,
      "Sanchez": 6220,
      "Sancho": 6221,
      "Sand": 6222,
      "Sander": 6223,
      "Sanders": 6224,
      "Sandra": 6225,
      "Sandy": 6226,
      "Sankt": 6227,
      "Sanne": 6228,
      "Sant": 6229,
      "Santa": 6230,
      "Santiago": 6231,
      "Santo": 6232,
      "Santos": 6233,
      "Saoedi": 6234,
      "Saoedisch": 6235,
      "Sap": 6236,
      "Saph": 6237,
      "Sar": 6238,
      "Sara": 6239,
      "Sarah": 6240,
      "Sardinië": 6241,
      "Sarkozy": 6242,
      "Saryon": 6243,
      "Sasha": 6244,
      "Saski": 6245,
      "Sat": 6246,
      "Satan": 6247,
      "Saturni": 6248,
      "Sau": 6249,
      "Saudi": 6250,
      "Saudisch": 6251,
      "Saul": 6252,
      "Sav": 6253,
      "Savo": 6254,
      "Saw": 6255,
      "Say": 6256,
      "Sc": 6257,
      "Sca": 6258,
      "Scandinavië": 6259,
      "Scar": 6260,
      "Scarlet": 6261,
      "Sch": 6262,
      "Scha": 6263,
      "Schaap": 6264,
      "Schaarbeek": 6265,
      "Schaats": 6266,
      "Schaduw": 6267,
      "Schalke": 6268,
      "Schalken": 6269,
      "Schat": 6270,
      "Sche": 6271,
      "Scheffer": 6272,
      "Schei": 6273,
      "Scheidsrechter": 6274,
      "Schel": 6275,
      "Schelde": 6276,
      "Schelle": 6277,
      "Schengen": 6278,
      "Schenk": 6279,
      "Schep": 6280,
      "Schepen": 6281,
      "Schepper": 6282,
      "Scherp": 6283,
      "Schevening": 6284,
      "Schi": 6285,
      "Schiedam": 6286,
      "Schiet": 6287,
      "Schil": 6288,
      "Schilder": 6289,
      "Schip": 6290,
      "Schiphol": 6291,
      "Schipper": 6292,
      "Schippers": 6293,
      "Schitterend": 6294,
      "Schle": 6295,
      "Schm": 6296,
      "Schmidt": 6297,
      "Schneider": 6298,
      "Scho": 6299,
      "Schoen": 6300,
      "Schol": 6301,
      "Scholten": 6302,
      "Schone": 6303,
      "School": 6304,
      "Schoon": 6305,
      "Schot": 6306,
      "Schotland": 6307,
      "Schotse": 6308,
      "Schouten": 6309,
      "Schouw": 6310,
      "Schouwburg": 6311,
      "Schra": 6312,
      "Schre": 6313,
      "Schrift": 6314,
      "Schrijf": 6315,
      "Schrijver": 6316,
      "Schro": 6317,
      "Schröder": 6318,
      "Schu": 6319,
      "Schubert": 6320,
      "Schultz": 6321,
      "Schulz": 6322,
      "Schumacher": 6323,
      "Schuurman": 6324,
      "Schw": 6325,
      "Schwartz": 6326,
      "Schwarz": 6327,
      "Schwarzenegger": 6328,
      "Schön": 6329,
      "Sci": 6330,
      "Science": 6331,
      "Sco": 6332,
      "Scotland": 6333,
      "Scott": 6334,
      "Scull": 6335,
      "Se": 6336,
      "Sea": 6337,
      "Sean": 6338,
      "Seanchan": 6339,
      "Seattle": 6340,
      "Sebasti": 6341,
      "Sebastiaan": 6342,
      "Sebastian": 6343,
      "Second": 6344,
      "Secret": 6345,
      "Secretaris": 6346,
      "Securit": 6347,
      "Seda": 6348,
      "Sedert": 6349,
      "See": 6350,
      "Seg": 6351,
      "Segers": 6352,
      "Seine": 6353,
      "Seks": 6354,
      "Sel": 6355,
      "Sell": 6356,
      "Sem": 6357,
      "Semi": 6358,
      "Sen": 6359,
      "Senaat": 6360,
      "Senegal": 6361,
      "Seng": 6362,
      "Senior": 6363,
      "Seou": 6364,
      "Sep": 6365,
      "Sepp": 6366,
      "September": 6367,
      "Ser": 6368,
      "Sera": 6369,
      "Serena": 6370,
      "Serge": 6371,
      "Sergeant": 6372,
      "Sergej": 6373,
      "Sergio": 6374,
      "Serie": 6375,
      "Series": 6376,
      "Serra": 6377,
      "Serv": 6378,
      "Service": 6379,
      "Servisch": 6380,
      "Servische": 6381,
      "Servië": 6382,
      "Serviër": 6383,
      "Set": 6384,
      "Seth": 6385,
      "Seven": 6386,
      "Sever": 6387,
      "Sevilla": 6388,
      "Sex": 6389,
      "Sh": 6390,
      "Sha": 6391,
      "Shadow": 6392,
      "Shah": 6393,
      "Shakespeare": 6394,
      "Shan": 6395,
      "Shanghai": 6396,
      "Shannon": 6397,
      "Shar": 6398,
      "Sharif": 6399,
      "Sharon": 6400,
      "Sharp": 6401,
      "Shaw": 6402,
      "She": 6403,
      "Sheffield": 6404,
      "Sheila": 6405,
      "Shell": 6406,
      "Sher": 6407,
      "Sheri": 6408,
      "Shi": 6409,
      "Shim": 6410,
      "Shin": 6411,
      "Shir": 6412,
      "Shirley": 6413,
      "Shit": 6414,
      "Sho": 6415,
      "Shop": 6416,
      "Short": 6417,
      "Show": 6418,
      "Shu": 6419,
      "Si": 6420,
      "Sib": 6421,
      "Siberische": 6422,
      "Siberië": 6423,
      "Sicilië": 6424,
      "Sid": 6425,
      "Sidney": 6426,
      "Sieb": 6427,
      "Sieg": 6428,
      "Siegfried": 6429,
      "Siem": 6430,
      "Siemens": 6431,
      "Sierra": 6432,
      "Siets": 6433,
      "Sig": 6434,
      "Sign": 6435,
      "Sigur": 6436,
      "Sij": 6437,
      "Sik": 6438,
      "Sil": 6439,
      "Silezië": 6440,
      "Silicon": 6441,
      "Silva": 6442,
      "Silver": 6443,
      "Silvi": 6444,
      "Sim": 6445,
      "Simeon": 6446,
      "Simon": 6447,
      "Simone": 6448,
      "Simons": 6449,
      "Simpel": 6450,
      "Simpl": 6451,
      "Simpson": 6452,
      "Sin": 6453,
      "Sinatra": 6454,
      "Sinds": 6455,
      "Singapore": 6456,
      "Singel": 6457,
      "Singer": 6458,
      "Singh": 6459,
      "Single": 6460,
      "Sint": 6461,
      "Sinterklaas": 6462,
      "Sir": 6463,
      "Sittard": 6464,
      "Siu": 6465,
      "Six": 6466,
      "Sja": 6467,
      "Sjo": 6468,
      "Sjoerd": 6469,
      "Sjostako": 6470,
      "Sk": 6471,
      "Ska": 6472,
      "Ski": 6473,
      "Sko": 6474,
      "Sky": 6475,
      "Sl": 6476,
      "Sla": 6477,
      "Slaap": 6478,
      "Slachtoffer": 6479,
      "Slag": 6480,
      "Slam": 6481,
      "Slav": 6482,
      "Slavisch": 6483,
      "Slecht": 6484,
      "Slechts": 6485,
      "Slee": 6486,
      "Sleutel": 6487,
      "Sliedrecht": 6488,
      "Slim": 6489,
      "Slo": 6490,
      "Slobodan": 6491,
      "Slot": 6492,
      "Sloveens": 6493,
      "Slovenië": 6494,
      "Slowaakse": 6495,
      "Slowakije": 6496,
      "Slu": 6497,
      "Sluis": 6498,
      "Sluit": 6499,
      "Sluiter": 6500,
      "Sm": 6501,
      "Small": 6502,
      "Smart": 6503,
      "Sme": 6504,
      "Smeets": 6505,
      "Smet": 6506,
      "Smi": 6507,
      "Smit": 6508,
      "Smith": 6509,
      "Smits": 6510,
      "Smok": 6511,
      "Snap": 6512,
      "Sne": 6513,
      "Sneek": 6514,
      "Sneeuw": 6515,
      "Sneijder": 6516,
      "Snel": 6517,
      "Snelle": 6518,
      "Snijd": 6519,
      "Sno": 6520,
      "Snow": 6521,
      "So": 6522,
      "Sob": 6523,
      "Sociaal": 6524,
      "Social": 6525,
      "Sociale": 6526,
      "Socialistisch": 6527,
      "Society": 6528,
      "Société": 6529,
      "Soe": 6530,
      "Soedan": 6531,
      "Soeharto": 6532,
      "Soest": 6533,
      "Sofia": 6534,
      "Sofie": 6535,
      "Software": 6536,
      "Sol": 6537,
      "Solar": 6538,
      "Soldaten": 6539,
      "Solo": 6540,
      "Som": 6541,
      "Somalisch": 6542,
      "Somalië": 6543,
      "Somers": 6544,
      "Sommige": 6545,
      "Sommigen": 6546,
      "Soms": 6547,
      "Son": 6548,
      "Song": 6549,
      "Songfestival": 6550,
      "Sonny": 6551,
      "Sony": 6552,
      "Sophia": 6553,
      "Sophie": 6554,
      "Sor": 6555,
      "Sorry": 6556,
      "Sou": 6557,
      "Soul": 6558,
      "Sound": 6559,
      "South": 6560,
      "Southern": 6561,
      "Sovjet": 6562,
      "Sp": 6563,
      "Spa": 6564,
      "Spaans": 6565,
      "Spaanse": 6566,
      "Spaar": 6567,
      "Space": 6568,
      "Span": 6569,
      "Spanjaard": 6570,
      "Spanjaarden": 6571,
      "Spanje": 6572,
      "Spar": 6573,
      "Sparta": 6574,
      "Spe": 6575,
      "Spear": 6576,
      "Spec": 6577,
      "Speciaal": 6578,
      "Special": 6579,
      "Speed": 6580,
      "Speel": 6581,
      "Speer": 6582,
      "Spek": 6583,
      "Spel": 6584,
      "Spelen": 6585,
      "Spelers": 6586,
      "Spencer": 6587,
      "Spi": 6588,
      "Spice": 6589,
      "Spider": 6590,
      "Spiegel": 6591,
      "Spielberg": 6592,
      "Spier": 6593,
      "Spijker": 6594,
      "Spijt": 6595,
      "Spin": 6596,
      "Spinoza": 6597,
      "Spirit": 6598,
      "Spits": 6599,
      "Spong": 6600,
      "Spoor": 6601,
      "Spoorwegen": 6602,
      "Sport": 6603,
      "Sporting": 6604,
      "Spot": 6605,
      "Spra": 6606,
      "Spre": 6607,
      "Spreek": 6608,
      "Spring": 6609,
      "Springer": 6610,
      "Spui": 6611,
      "Square": 6612,
      "Srebrenica": 6613,
      "Sri": 6614,
      "St": 6615,
      "Sta": 6616,
      "Staal": 6617,
      "Staat": 6618,
      "Staats": 6619,
      "Staatsbos": 6620,
      "Stad": 6621,
      "Stadion": 6622,
      "Stadium": 6623,
      "Stads": 6624,
      "Stadsschouwburg": 6625,
      "Staf": 6626,
      "Stal": 6627,
      "Stalin": 6628,
      "Stam": 6629,
      "Stan": 6630,
      "Stand": 6631,
      "Standaard": 6632,
      "Standard": 6633,
      "Stanley": 6634,
      "Stap": 6635,
      "Star": 6636,
      "Start": 6637,
      "State": 6638,
      "Staten": 6639,
      "States": 6640,
      "Station": 6641,
      "Statistiek": 6642,
      "Ste": 6643,
      "Stedelijk": 6644,
      "Steden": 6645,
      "Steed": 6646,
      "Steel": 6647,
      "Steen": 6648,
      "Steenbergen": 6649,
      "Stef": 6650,
      "Stefan": 6651,
      "Stefanie": 6652,
      "Stefano": 6653,
      "Steg": 6654,
      "Stein": 6655,
      "Stekel": 6656,
      "Stekene": 6657,
      "Stel": 6658,
      "Stella": 6659,
      "Stem": 6660,
      "Sten": 6661,
      "Steno": 6662,
      "Step": 6663,
      "Stephan": 6664,
      "Stephanie": 6665,
      "Stephen": 6666,
      "Ster": 6667,
      "Sterk": 6668,
      "Sterker": 6669,
      "Stern": 6670,
      "Sterre": 6671,
      "Sterren": 6672,
      "Steun": 6673,
      "Steur": 6674,
      "Stevaert": 6675,
      "Steve": 6676,
      "Steven": 6677,
      "Stevens": 6678,
      "Stevie": 6679,
      "Stewart": 6680,
      "Sti": 6681,
      "Stichting": 6682,
      "Stijn": 6683,
      "Stil": 6684,
      "Stille": 6685,
      "Stilte": 6686,
      "Sto": 6687,
      "Stock": 6688,
      "Stockholm": 6689,
      "Stoel": 6690,
      "Stok": 6691,
      "Stol": 6692,
      "Stom": 6693,
      "Stond": 6694,
      "Stone": 6695,
      "Stop": 6696,
      "Stor": 6697,
      "Stork": 6698,
      "Storm": 6699,
      "Story": 6700,
      "Stout": 6701,
      "Str": 6702,
      "Stra": 6703,
      "Straat": 6704,
      "Straatsburg": 6705,
      "Straf": 6706,
      "Strak": 6707,
      "Strand": 6708,
      "Strateg": 6709,
      "Strauss": 6710,
      "Stravinsky": 6711,
      "Stre": 6712,
      "Street": 6713,
      "Stri": 6714,
      "Strij": 6715,
      "Strijd": 6716,
      "Strip": 6717,
      "Stro": 6718,
      "Stru": 6719,
      "Stu": 6720,
      "Stuart": 6721,
      "Studenten": 6722,
      "Studie": 6723,
      "Studio": 6724,
      "Stuk": 6725,
      "Stur": 6726,
      "Sturm": 6727,
      "Stuttgart": 6728,
      "Stuur": 6729,
      "Styl": 6730,
      "Stéphan": 6731,
      "Su": 6732,
      "Sub": 6733,
      "Subti": 6734,
      "Succes": 6735,
      "Sud": 6736,
      "Sudan": 6737,
      "Suez": 6738,
      "Suiker": 6739,
      "Suk": 6740,
      "Sul": 6741,
      "Sullivan": 6742,
      "Sultan": 6743,
      "Sum": 6744,
      "Sumatra": 6745,
      "Summer": 6746,
      "Sun": 6747,
      "Sunday": 6748,
      "Sunweb": 6749,
      "Super": 6750,
      "Support": 6751,
      "Sur": 6752,
      "Surinaams": 6753,
      "Suriname": 6754,
      "Surinamer": 6755,
      "Surre": 6756,
      "Susan": 6757,
      "Susanna": 6758,
      "Susanne": 6759,
      "Suske": 6760,
      "Suzan": 6761,
      "Suzanne": 6762,
      "Suzuki": 6763,
      "Sven": 6764,
      "Sw": 6765,
      "Swa": 6766,
      "Swan": 6767,
      "Swart": 6768,
      "Sweet": 6769,
      "Swi": 6770,
      "Swift": 6771,
      "Swiss": 6772,
      "Sy": 6773,
      "Sybil": 6774,
      "Sydney": 6775,
      "Syl": 6776,
      "Sylvain": 6777,
      "Sylvia": 6778,
      "Sylvie": 6779,
      "Sym": 6780,
      "Symfonie": 6781,
      "Symphon": 6782,
      "Syn": 6783,
      "Syrisch": 6784,
      "Syrië": 6785,
      "Syriërs": 6786,
      "System": 6787,
      "Sz": 6788,
      "Sé": 6789,
      "Sébasti": 6790,
      "TC": 6791,
      "TE": 6792,
      "THE": 6793,
      "TMF": 6794,
      "TNO": 6795,
      "TNT": 6796,
      "TOP": 6797,
      "TT": 6798,
      "TV": 6799,
      "TWEE": 6800,
      "Ta": 6801,
      "Taal": 6802,
      "Tab": 6803,
      "Tadzji": 6804,
      "Tafel": 6805,
      "Tag": 6806,
      "Tai": 6807,
      "Taiwan": 6808,
      "Tak": 6809,
      "Take": 6810,
      "Tal": 6811,
      "Talbot": 6812,
      "Talent": 6813,
      "Taliba": 6814,
      "Taliban": 6815,
      "Talpa": 6816,
      "Tam": 6817,
      "Tamara": 6818,
      "Tamil": 6819,
      "Tan": 6820,
      "Tand": 6821,
      "Tang": 6822,
      "Tani": 6823,
      "Tanj": 6824,
      "Tante": 6825,
      "Tanzania": 6826,
      "Tar": 6827,
      "Tara": 6828,
      "Tarzan": 6829,
      "Tas": 6830,
      "Tata": 6831,
      "Taxi": 6832,
      "Taylor": 6833,
      "Te": 6834,
      "Team": 6835,
      "Technisch": 6836,
      "Technische": 6837,
      "Technolog": 6838,
      "Technologie": 6839,
      "Ted": 6840,
      "Teddy": 6841,
      "Teeven": 6842,
      "Tegelijk": 6843,
      "Tegen": 6844,
      "Tegenstander": 6845,
      "Tegenwoordig": 6846,
      "Teken": 6847,
      "Tekst": 6848,
      "Tel": 6849,
      "Tele": 6850,
      "Telecom": 6851,
      "Telef": 6852,
      "Telefoon": 6853,
      "Telegraaf": 6854,
      "Telegraph": 6855,
      "Telekom": 6856,
      "Telenet": 6857,
      "Televisie": 6858,
      "Telken": 6859,
      "Tem": 6860,
      "Temp": 6861,
      "Tempel": 6862,
      "Temple": 6863,
      "Temse": 6864,
      "Ten": 6865,
      "Tennis": 6866,
      "Tenslotte": 6867,
      "Tenzij": 6868,
      "Ter": 6869,
      "Terecht": 6870,
      "Teresa": 6871,
      "Ternat": 6872,
      "Terneuzen": 6873,
      "Terra": 6874,
      "Terran": 6875,
      "Terri": 6876,
      "Terry": 6877,
      "Terschelling": 6878,
      "Terug": 6879,
      "Tervuren": 6880,
      "Terwij": 6881,
      "Tesla": 6882,
      "Tess": 6883,
      "Tessa": 6884,
      "Tessenderlo": 6885,
      "Test": 6886,
      "Testament": 6887,
      "Tetra": 6888,
      "Tett": 6889,
      "Teun": 6890,
      "Teven": 6891,
      "Tevreden": 6892,
      "Tex": 6893,
      "Texas": 6894,
      "Texel": 6895,
      "Th": 6896,
      "Tha": 6897,
      "Thailand": 6898,
      "Thaise": 6899,
      "Than": 6900,
      "Thatcher": 6901,
      "The": 6902,
      "Theater": 6903,
      "Theatre": 6904,
      "Theems": 6905,
      "Theo": 6906,
      "Theodor": 6907,
      "Theres": 6908,
      "Theri": 6909,
      "Theunis": 6910,
      "Thi": 6911,
      "Thialf": 6912,
      "Thierry": 6913,
      "Thijs": 6914,
      "This": 6915,
      "Tho": 6916,
      "Thom": 6917,
      "Thomas": 6918,
      "Thompson": 6919,
      "Thomson": 6920,
      "Thor": 6921,
      "Thora": 6922,
      "Thorn": 6923,
      "Thorvald": 6924,
      "Thra": 6925,
      "Three": 6926,
      "Thro": 6927,
      "Thu": 6928,
      "Thuis": 6929,
      "Thunder": 6930,
      "Thur": 6931,
      "Thy": 6932,
      "Thé": 6933,
      "Thérès": 6934,
      "Ti": 6935,
      "Tia": 6936,
      "Tibet": 6937,
      "Tibetaans": 6938,
      "Ticket": 6939,
      "Tiel": 6940,
      "Tielt": 6941,
      "Tien": 6942,
      "Tienduizend": 6943,
      "Tienen": 6944,
      "Tiental": 6945,
      "Tiff": 6946,
      "Tiffany": 6947,
      "Tig": 6948,
      "Tiger": 6949,
      "Tijd": 6950,
      "Tijdens": 6951,
      "Tijger": 6952,
      "Tik": 6953,
      "Til": 6954,
      "Tilburg": 6955,
      "Tilburgse": 6956,
      "Till": 6957,
      "Tilly": 6958,
      "Tim": 6959,
      "Time": 6960,
      "Times": 6961,
      "Timmer": 6962,
      "Timmermans": 6963,
      "Timo": 6964,
      "Timor": 6965,
      "Timothy": 6966,
      "Tin": 6967,
      "Tina": 6968,
      "Tineke": 6969,
      "Tip": 6970,
      "Tir": 6971,
      "Tirol": 6972,
      "Titan": 6973,
      "Titani": 6974,
      "Titus": 6975,
      "Tivoli": 6976,
      "Tj": 6977,
      "Tja": 6978,
      "Tjalling": 6979,
      "To": 6980,
      "Tob": 6981,
      "Tobback": 6982,
      "Tobias": 6983,
      "Toby": 6984,
      "Toch": 6985,
      "Todd": 6986,
      "Toe": 6987,
      "Toegang": 6988,
      "Toekomst": 6989,
      "Toen": 6990,
      "Toerisme": 6991,
      "Toevallig": 6992,
      "Toezicht": 6993,
      "Tokio": 6994,
      "Tol": 6995,
      "Toledo": 6996,
      "Tolo": 6997,
      "Tolsto": 6998,
      "Tom": 6999,
      "Tomas": 7000,
      "Tommy": 7001,
      "Ton": 7002,
      "Toneel": 7003,
      "Tong": 7004,
      "Tongeren": 7005,
      "Toni": 7006,
      "Tony": 7007,
      "Too": 7008,
      "Toon": 7009,
      "Top": 7010,
      "Topman": 7011,
      "Tor": 7012,
      "Toren": 7013,
      "Torhout": 7014,
      "Torka": 7015,
      "Toronto": 7016,
      "Torre": 7017,
      "Tosca": 7018,
      "Toscane": 7019,
      "Tot": 7020,
      "Totaal": 7021,
      "Total": 7022,
      "Tottenham": 7023,
      "Tou": 7024,
      "Touch": 7025,
      "Toulouse": 7026,
      "Tour": 7027,
      "Tower": 7028,
      "Town": 7029,
      "Toy": 7030,
      "Toyota": 7031,
      "Tr": 7032,
      "Tra": 7033,
      "Tracy": 7034,
      "Trade": 7035,
      "Traditione": 7036,
      "Train": 7037,
      "Trainer": 7038,
      "Tranen": 7039,
      "Trans": 7040,
      "Transport": 7041,
      "Travel": 7042,
      "Travi": 7043,
      "Tre": 7044,
      "Trek": 7045,
      "Trent": 7046,
      "Trevi": 7047,
      "Trevor": 7048,
      "Tri": 7049,
      "Tribun": 7050,
      "Tribunaal": 7051,
      "Tricho": 7052,
      "Trijnt": 7053,
      "Trio": 7054,
      "Trip": 7055,
      "Tristan": 7056,
      "Tro": 7057,
      "Trollok": 7058,
      "Tromp": 7059,
      "Troost": 7060,
      "Trop": 7061,
      "Trophy": 7062,
      "Trots": 7063,
      "Trouw": 7064,
      "Trouwen": 7065,
      "Troy": 7066,
      "Tru": 7067,
      "Trud": 7068,
      "Truiden": 7069,
      "Trump": 7070,
      "Trust": 7071,
      "Tsa": 7072,
      "Tsi": 7073,
      "Tsj": 7074,
      "Tsja": 7075,
      "Tsjaad": 7076,
      "Tsjech": 7077,
      "Tsjechisch": 7078,
      "Tsjechië": 7079,
      "Tsjetsjeens": 7080,
      "Tsjetsjenië": 7081,
      "Tsjoe": 7082,
      "Tsjoebai": 7083,
      "Tsu": 7084,
      "Tu": 7085,
      "Tub": 7086,
      "Tubeke": 7087,
      "Tucker": 7088,
      "Tuin": 7089,
      "Tul": 7090,
      "Tull": 7091,
      "Tunesië": 7092,
      "Tung": 7093,
      "Tuo": 7094,
      "Tur": 7095,
      "Turijn": 7096,
      "Turk": 7097,
      "Turken": 7098,
      "Turkije": 7099,
      "Turks": 7100,
      "Turkse": 7101,
      "Turner": 7102,
      "Turnhout": 7103,
      "Tussen": 7104,
      "Tutsi": 7105,
      "Tuurlijk": 7106,
      "Tw": 7107,
      "Twaalf": 7108,
      "Twee": 7109,
      "Tweede": 7110,
      "Twente": 7111,
      "Twijfel": 7112,
      "Twin": 7113,
      "Twintig": 7114,
      "Twitter": 7115,
      "Two": 7116,
      "Ty": 7117,
      "Tyler": 7118,
      "Type": 7119,
      "Typisch": 7120,
      "Tyr": 7121,
      "UCI": 7122,
      "UEFA": 7123,
      "UNES": 7124,
      "UNI": 7125,
      "UPC": 7126,
      "US": 7127,
      "USA": 7128,
      "USD": 7129,
      "USS": 7130,
      "UTRECHT": 7131,
      "Uber": 7132,
      "Uefa": 7133,
      "Uit": 7134,
      "Uiteindelijk": 7135,
      "Uiterlijk": 7136,
      "Uitgeverij": 7137,
      "Uitstekend": 7138,
      "Ukkel": 7139,
      "Ul": 7140,
      "Ullrich": 7141,
      "Ulrich": 7142,
      "Ultra": 7143,
      "Un": 7144,
      "Under": 7145,
      "Unesco": 7146,
      "Uni": 7147,
      "Unie": 7148,
      "Unilever": 7149,
      "Union": 7150,
      "United": 7151,
      "Universal": 7152,
      "Universe": 7153,
      "Universit": 7154,
      "Universitair": 7155,
      "Universiteit": 7156,
      "University": 7157,
      "Unizo": 7158,
      "Unter": 7159,
      "Up": 7160,
      "Ur": 7161,
      "Urban": 7162,
      "Urk": 7163,
      "Ursula": 7164,
      "Uruguay": 7165,
      "Utah": 7166,
      "Utrecht": 7167,
      "Utrechtse": 7168,
      "Uw": 7169,
      "Uyl": 7170,
      "Uytte": 7171,
      "V8": 7172,
      "VA": 7173,
      "VAN": 7174,
      "VARA": 7175,
      "VAST": 7176,
      "VB": 7177,
      "VER": 7178,
      "VERORDENING": 7179,
      "VI": 7180,
      "VII": 7181,
      "VK": 7182,
      "VLD": 7183,
      "VN": 7184,
      "VNO": 7185,
      "VOC": 7186,
      "VOLGEN": 7187,
      "VOOR": 7188,
      "VROM": 7189,
      "VROUW": 7190,
      "VRT": 7191,
      "VS": 7192,
      "VT4": 7193,
      "VTM": 7194,
      "VU": 7195,
      "VV": 7196,
      "VVD": 7197,
      "VVV": 7198,
      "VW": 7199,
      "VWS": 7200,
      "Va": 7201,
      "Vaak": 7202,
      "Vaart": 7203,
      "Vaarwe": 7204,
      "Vader": 7205,
      "Vaderland": 7206,
      "Vai": 7207,
      "Vak": 7208,
      "Vakantie": 7209,
      "Vakbond": 7210,
      "Val": 7211,
      "Valencia": 7212,
      "Valentijn": 7213,
      "Valentin": 7214,
      "Valeri": 7215,
      "Valerie": 7216,
      "Valk": 7217,
      "Valkenburg": 7218,
      "Vall": 7219,
      "Valley": 7220,
      "Valverde": 7221,
      "Van": 7222,
      "Vanaf": 7223,
      "Vanavond": 7224,
      "Vancouver": 7225,
      "Vandaag": 7226,
      "Vandaar": 7227,
      "Vandamme": 7228,
      "Vande": 7229,
      "Vanden": 7230,
      "Vandenbergh": 7231,
      "Vandenbroucke": 7232,
      "Vander": 7233,
      "Vandereycken": 7234,
      "Vanmorgen": 7235,
      "Vanweg": 7236,
      "Vanzelfsprekend": 7237,
      "Var": 7238,
      "Vara": 7239,
      "Vas": 7240,
      "Vast": 7241,
      "Vastgoed": 7242,
      "Vaticaan": 7243,
      "Vecht": 7244,
      "Ved": 7245,
      "Vee": 7246,
      "Veel": 7247,
      "Veen": 7248,
      "Veendam": 7249,
      "Veenendaal": 7250,
      "Veer": 7251,
      "Veerle": 7252,
      "Veerman": 7253,
      "Veertien": 7254,
      "Veertig": 7255,
      "Vegas": 7256,
      "Vei": 7257,
      "Veilig": 7258,
      "Veiligheid": 7259,
      "Veiligheidsraad": 7260,
      "Vel": 7261,
      "Veld": 7262,
      "Velde": 7263,
      "Veldhoven": 7264,
      "Vele": 7265,
      "Velen": 7266,
      "Veluwe": 7267,
      "Ven": 7268,
      "Vendex": 7269,
      "Veneti": 7270,
      "Venetië": 7271,
      "Venezolaans": 7272,
      "Venezuela": 7273,
      "Venlo": 7274,
      "Venne": 7275,
      "Venus": 7276,
      "Ver": 7277,
      "Vera": 7278,
      "Verb": 7279,
      "Verbaasd": 7280,
      "Verbond": 7281,
      "Verbruggen": 7282,
      "Vercauteren": 7283,
      "Verder": 7284,
      "Verdi": 7285,
      "Verdomd": 7286,
      "Verdomme": 7287,
      "Verdonk": 7288,
      "Verdrag": 7289,
      "Verenigd": 7290,
      "Vereniging": 7291,
      "Vergadering": 7292,
      "Vergeef": 7293,
      "Vergeet": 7294,
      "Vergelijk": 7295,
      "Verhaeghe": 7296,
      "Verhagen": 7297,
      "Verhe": 7298,
      "Verheyen": 7299,
      "Verhoeven": 7300,
      "Verhofstadt": 7301,
      "Verhulst": 7302,
      "Verkeer": 7303,
      "Verklaring": 7304,
      "Verlichting": 7305,
      "Verlinde": 7306,
      "Verloren": 7307,
      "Verm": 7308,
      "Vermeend": 7309,
      "Vermeer": 7310,
      "Vermeersch": 7311,
      "Vermeir": 7312,
      "Vermeulen": 7313,
      "Vermoedelijk": 7314,
      "Verona": 7315,
      "Veronica": 7316,
      "Veronique": 7317,
      "Verordening": 7318,
      "Verrassend": 7319,
      "Verre": 7320,
      "Vers": 7321,
      "Versaille": 7322,
      "Versatel": 7323,
      "Verscheidene": 7324,
      "Verschillend": 7325,
      "Verschrikkelijk": 7326,
      "Verstappen": 7327,
      "Verstraete": 7328,
      "Vertel": 7329,
      "Vertrouw": 7330,
      "Verviers": 7331,
      "Vervolg": 7332,
      "Vervolgens": 7333,
      "Verwacht": 7334,
      "Verwilghen": 7335,
      "Verzamel": 7336,
      "Verzekeraar": 7337,
      "Verzekering": 7338,
      "Ves": 7339,
      "Vest": 7340,
      "Vet": 7341,
      "Vettel": 7342,
      "Veurne": 7343,
      "Vi": 7344,
      "Via": 7345,
      "Vic": 7346,
      "Vicky": 7347,
      "Victor": 7348,
      "Victoria": 7349,
      "Victoriaans": 7350,
      "Video": 7351,
      "Vier": 7352,
      "Vierde": 7353,
      "Vietnam": 7354,
      "Vijf": 7355,
      "Vijftien": 7356,
      "Vijftig": 7357,
      "Viking": 7358,
      "Viktor": 7359,
      "Vil": 7360,
      "Villa": 7361,
      "Village": 7362,
      "Ville": 7363,
      "Villiers": 7364,
      "Vilvoorde": 7365,
      "Vin": 7366,
      "Vince": 7367,
      "Vincent": 7368,
      "Vincenz": 7369,
      "Vinci": 7370,
      "Vind": 7371,
      "Vink": 7372,
      "Violet": 7373,
      "Virgil": 7374,
      "Virgin": 7375,
      "Virginia": 7376,
      "Virtu": 7377,
      "Vis": 7378,
      "Visser": 7379,
      "Vit": 7380,
      "Vital": 7381,
      "Vitesse": 7382,
      "Vito": 7383,
      "Vittori": 7384,
      "Viva": 7385,
      "Vivi": 7386,
      "Vivian": 7387,
      "Vlaams": 7388,
      "Vlaamse": 7389,
      "Vlaanderen": 7390,
      "Vlaardingen": 7391,
      "Vlad": 7392,
      "Vladimir": 7393,
      "Vlak": 7394,
      "Vlaming": 7395,
      "Vlamingen": 7396,
      "Vledder": 7397,
      "Vlees": 7398,
      "Vleuten": 7399,
      "Vlieg": 7400,
      "Vliegenthart": 7401,
      "Vliet": 7402,
      "Vlijmen": 7403,
      "Vlimme": 7404,
      "Vlinder": 7405,
      "Vlissingen": 7406,
      "Vlucht": 7407,
      "Vluchtelingen": 7408,
      "Vlug": 7409,
      "Vo": 7410,
      "Vodafone": 7411,
      "Voedsel": 7412,
      "Voeg": 7413,
      "Voel": 7414,
      "Voer": 7415,
      "Voet": 7416,
      "Voetbal": 7417,
      "Vogel": 7418,
      "Voice": 7419,
      "Voil": 7420,
      "Vol": 7421,
      "Volendam": 7422,
      "Volg": 7423,
      "Volgend": 7424,
      "Volgens": 7425,
      "Volk": 7426,
      "Volker": 7427,
      "Volks": 7428,
      "Volksgezondheid": 7429,
      "Volkskrant": 7430,
      "Volksrepubliek": 7431,
      "Volkswagen": 7432,
      "Volle": 7433,
      "Vollenhove": 7434,
      "Volvo": 7435,
      "Volwassen": 7436,
      "Von": 7437,
      "Vondel": 7438,
      "Vondelpark": 7439,
      "Voor": 7440,
      "Voorafgaand": 7441,
      "Vooral": 7442,
      "Voorbeelden": 7443,
      "Voorlopig": 7444,
      "Voormalig": 7445,
      "Voorts": 7446,
      "Vooruit": 7447,
      "Voorzichtig": 7448,
      "Voorzitter": 7449,
      "Vor": 7450,
      "Vorig": 7451,
      "Vorm": 7452,
      "Vorst": 7453,
      "Vos": 7454,
      "Vr": 7455,
      "Vraag": 7456,
      "Vragen": 7457,
      "Vrede": 7458,
      "Vree": 7459,
      "Vreemd": 7460,
      "Vreemdelingen": 7461,
      "Vreselijk": 7462,
      "Vriend": 7463,
      "Vrienden": 7464,
      "Vries": 7465,
      "Vrij": 7466,
      "Vrijdag": 7467,
      "Vrije": 7468,
      "Vrijheid": 7469,
      "Vroeg": 7470,
      "Vroeger": 7471,
      "Vrolijk": 7472,
      "Vrouw": 7473,
      "Vrouwe": 7474,
      "Vrouwen": 7475,
      "Vu": 7476,
      "Vuelta": 7477,
      "Vught": 7478,
      "Vul": 7479,
      "Vuur": 7480,
      "Vóór": 7481,
      "WAO": 7482,
      "WE": 7483,
      "WHO": 7484,
      "WIL": 7485,
      "WK": 7486,
      "WTA": 7487,
      "WTC": 7488,
      "WTO": 7489,
      "WW": 7490,
      "Wa": 7491,
      "Waag": 7492,
      "Waal": 7493,
      "Waalse": 7494,
      "Waalwijk": 7495,
      "Waar": 7496,
      "Waarme": 7497,
      "Waaro": 7498,
      "Waarschijnlijk": 7499,
      "Waas": 7500,
      "Waasland": 7501,
      "Wacht": 7502,
      "Wadden": 7503,
      "Waddenzee": 7504,
      "Wag": 7505,
      "Wagen": 7506,
      "Wageningen": 7507,
      "Wagner": 7508,
      "Wahid": 7509,
      "Wak": 7510,
      "Wakker": 7511,
      "Wal": 7512,
      "Wald": 7513,
      "Wales": 7514,
      "Walk": 7515,
      "Walker": 7516,
      "Wall": 7517,
      "Wallace": 7518,
      "Wallander": 7519,
      "Wallonië": 7520,
      "Walsh": 7521,
      "Walt": 7522,
      "Walter": 7523,
      "Wan": 7524,
      "Wand": 7525,
      "Wandel": 7526,
      "Wang": 7527,
      "Wanne": 7528,
      "Want": 7529,
      "Wapen": 7530,
      "War": 7531,
      "Ward": 7532,
      "Waregem": 7533,
      "Waren": 7534,
      "Warm": 7535,
      "Warner": 7536,
      "Warren": 7537,
      "Warrior": 7538,
      "Warschau": 7539,
      "Was": 7540,
      "Washington": 7541,
      "Wassenaar": 7542,
      "Wat": 7543,
      "Watch": 7544,
      "Water": 7545,
      "Waterloo": 7546,
      "Waterstaat": 7547,
      "Watson": 7548,
      "Wauters": 7549,
      "Waver": 7550,
      "Way": 7551,
      "Wayne": 7552,
      "We": 7553,
      "Web": 7554,
      "Weber": 7555,
      "Webster": 7556,
      "Week": 7557,
      "Weekend": 7558,
      "Weer": 7559,
      "Weert": 7560,
      "Wees": 7561,
      "Weet": 7562,
      "Weg": 7563,
      "Wegen": 7564,
      "Wehrmacht": 7565,
      "Weimar": 7566,
      "Weinig": 7567,
      "Weinstein": 7568,
      "Weiss": 7569,
      "Wel": 7570,
      "Welk": 7571,
      "Welke": 7572,
      "Welkom": 7573,
      "Well": 7574,
      "Wellens": 7575,
      "Welnee": 7576,
      "Welsh": 7577,
      "Welt": 7578,
      "Welzijn": 7579,
      "Wend": 7580,
      "Wenen": 7581,
      "Wenne": 7582,
      "Werchter": 7583,
      "Werd": 7584,
      "Wereld": 7585,
      "Wereldbank": 7586,
      "Wereldbeker": 7587,
      "Wereldoorlog": 7588,
      "Wereldwijd": 7589,
      "Werf": 7590,
      "Werk": 7591,
      "Werkelijk": 7592,
      "Werken": 7593,
      "Werkgelegenheid": 7594,
      "Werkgevers": 7595,
      "Werknemers": 7596,
      "Werner": 7597,
      "Wervik": 7598,
      "Wesley": 7599,
      "Wessel": 7600,
      "West": 7601,
      "Westelijke": 7602,
      "Westen": 7603,
      "Wester": 7604,
      "Westerbork": 7605,
      "Westerlo": 7606,
      "Westerse": 7607,
      "Westfalen": 7608,
      "Wet": 7609,
      "Wetenschap": 7610,
      "Wetenschappe": 7611,
      "Wetenschapper": 7612,
      "Wethouder": 7613,
      "Wetteren": 7614,
      "Wevelgem": 7615,
      "What": 7616,
      "Whi": 7617,
      "Whit": 7618,
      "White": 7619,
      "Whitlock": 7620,
      "Who": 7621,
      "Wi": 7622,
      "Wid": 7623,
      "Wie": 7624,
      "Wiebe": 7625,
      "Wiegel": 7626,
      "Wiel": 7627,
      "Wielsbeke": 7628,
      "Wiener": 7629,
      "Wij": 7630,
      "Wijk": 7631,
      "Wijnschenk": 7632,
      "Wijzen": 7633,
      "Wiki": 7634,
      "Wil": 7635,
      "Wild": 7636,
      "Wilde": 7637,
      "Wilders": 7638,
      "Wilfried": 7639,
      "Wilhelm": 7640,
      "Wilhelmina": 7641,
      "Will": 7642,
      "Willebroek": 7643,
      "Willem": 7644,
      "Willems": 7645,
      "William": 7646,
      "Williams": 7647,
      "Willie": 7648,
      "Willy": 7649,
      "Wilrijk": 7650,
      "Wilson": 7651,
      "Wilt": 7652,
      "Wim": 7653,
      "Wimbledon": 7654,
      "Win": 7655,
      "Wind": 7656,
      "Windows": 7657,
      "Windsor": 7658,
      "Wing": 7659,
      "Winkel": 7660,
      "Winne": 7661,
      "Winst": 7662,
      "Winston": 7663,
      "Winter": 7664,
      "Winterspelen": 7665,
      "Wir": 7666,
      "Wis": 7667,
      "Wiscons": 7668,
      "Wiske": 7669,
      "Wisse": 7670,
      "Wist": 7671,
      "Wit": 7672,
      "With": 7673,
      "Witt": 7674,
      "Witte": 7675,
      "Wo": 7676,
      "Woede": 7677,
      "Woedend": 7678,
      "Woensdag": 7679,
      "Woerden": 7680,
      "Woest": 7681,
      "Wol": 7682,
      "Wolf": 7683,
      "Wolff": 7684,
      "Wolfgang": 7685,
      "Wolfsburg": 7686,
      "Wolkers": 7687,
      "Wolters": 7688,
      "Woluwe": 7689,
      "Women": 7690,
      "Wonder": 7691,
      "Wonen": 7692,
      "Woning": 7693,
      "Wood": 7694,
      "Woods": 7695,
      "Wool": 7696,
      "Woon": 7697,
      "Woord": 7698,
      "Woordvoerder": 7699,
      "Word": 7700,
      "Wordt": 7701,
      "Work": 7702,
      "World": 7703,
      "Worm": 7704,
      "Worth": 7705,
      "Woud": 7706,
      "Wout": 7707,
      "Wouter": 7708,
      "Wouters": 7709,
      "Wright": 7710,
      "Wu": 7711,
      "Wulf": 7712,
      "Wy": 7713,
      "Wyatt": 7714,
      "Wyn": 7715,
      "YORK": 7716,
      "Ya": 7717,
      "Yama": 7718,
      "Yamaha": 7719,
      "Yan": 7720,
      "Yang": 7721,
      "Yankee": 7722,
      "Yannick": 7723,
      "Yard": 7724,
      "Yasmin": 7725,
      "Yates": 7726,
      "Ye": 7727,
      "Year": 7728,
      "Yellow": 7729,
      "Yi": 7730,
      "Yo": 7731,
      "Yorin": 7732,
      "York": 7733,
      "Yorkse": 7734,
      "Yorkshire": 7735,
      "Yoshi": 7736,
      "You": 7737,
      "YouTube": 7738,
      "Young": 7739,
      "Your": 7740,
      "Yu": 7741,
      "Yuki": 7742,
      "Yuri": 7743,
      "Yve": 7744,
      "Yvette": 7745,
      "Yvonn": 7746,
      "ZE": 7747,
      "ZIJN": 7748,
      "Za": 7749,
      "Zaal": 7750,
      "Zaandam": 7751,
      "Zacht": 7752,
      "Zack": 7753,
      "Zag": 7754,
      "Zagreb": 7755,
      "Zak": 7756,
      "Zaken": 7757,
      "Zal": 7758,
      "Zalm": 7759,
      "Zambia": 7760,
      "Zan": 7761,
      "Zand": 7762,
      "Zandvoort": 7763,
      "Zanger": 7764,
      "Zap": 7765,
      "Zaterdag": 7766,
      "Zaventem": 7767,
      "Zaïre": 7768,
      "Ze": 7769,
      "Zedd": 7770,
      "Zedelgem": 7771,
      "Zeebrugge": 7772,
      "Zeeland": 7773,
      "Zeeuws": 7774,
      "Zeg": 7775,
      "Zeist": 7776,
      "Zeitung": 7777,
      "Zeker": 7778,
      "Zelden": 7779,
      "Zele": 7780,
      "Zelf": 7781,
      "Zelfs": 7782,
      "Zelzate": 7783,
      "Zembla": 7784,
      "Zestien": 7785,
      "Zeven": 7786,
      "Zeventien": 7787,
      "Zhang": 7788,
      "Zi": 7789,
      "Zich": 7790,
      "Zidane": 7791,
      "Zie": 7792,
      "Ziekenhuis": 7793,
      "Ziet": 7794,
      "Ziggo": 7795,
      "Zij": 7796,
      "Zijlstra": 7797,
      "Zijn": 7798,
      "Zilver": 7799,
      "Zimbabwe": 7800,
      "Zin": 7801,
      "Zit": 7802,
      "Zitten": 7803,
      "Zo": 7804,
      "Zoal": 7805,
      "Zoek": 7806,
      "Zoetermeer": 7807,
      "Zolder": 7808,
      "Zomer": 7809,
      "Zomerspele": 7810,
      "Zondag": 7811,
      "Zonder": 7812,
      "Zonhoven": 7813,
      "Zonne": 7814,
      "Zoo": 7815,
      "Zoom": 7816,
      "Zoon": 7817,
      "Zorg": 7818,
      "Zorreguiet": 7819,
      "Zottegem": 7820,
      "Zou": 7821,
      "Zouden": 7822,
      "Zoveel": 7823,
      "Zoë": 7824,
      "Zu": 7825,
      "Zuid": 7826,
      "Zuidelijke": 7827,
      "Zuider": 7828,
      "Zuiderzee": 7829,
      "Zuidoost": 7830,
      "Zul": 7831,
      "Zulk": 7832,
      "Zulte": 7833,
      "Zundert": 7834,
      "Zuster": 7835,
      "Zutphen": 7836,
      "Zw": 7837,
      "Zwaan": 7838,
      "Zwaar": 7839,
      "Zwaard": 7840,
      "Zwan": 7841,
      "Zwar": 7842,
      "Zwart": 7843,
      "Zwarte": 7844,
      "Zwe": 7845,
      "Zweden": 7846,
      "Zweed": 7847,
      "Zweeds": 7848,
      "Zweedse": 7849,
      "Zwerver": 7850,
      "Zwevegem": 7851,
      "Zwi": 7852,
      "Zwijg": 7853,
      "Zwijgen": 7854,
      "Zwijndrecht": 7855,
      "Zwitser": 7856,
      "Zwitserland": 7857,
      "Zwitsers": 7858,
      "Zwolle": 7859,
      "Zyg": 7860,
      "aaide": 7861,
      "aan": 7862,
      "aanbesteding": 7863,
      "aanbeveling": 7864,
      "aanbieden": 7865,
      "aanbieders": 7866,
      "aanbieding": 7867,
      "aanbiedingen": 7868,
      "aanbod": 7869,
      "aanbrengen": 7870,
      "aandacht": 7871,
      "aandachtig": 7872,
      "aandeel": 7873,
      "aandeelhouder": 7874,
      "aandeelhouders": 7875,
      "aandelen": 7876,
      "aandelenkoers": 7877,
      "aandelenmarkt": 7878,
      "aandoen": 7879,
      "aandoening": 7880,
      "aandoenlijk": 7881,
      "aandringen": 7882,
      "aanduiding": 7883,
      "aaneenge": 7884,
      "aangaan": 7885,
      "aange": 7886,
      "aangeboden": 7887,
      "aangebracht": 7888,
      "aangedaan": 7889,
      "aangeduid": 7890,
      "aangegeven": 7891,
      "aangehouden": 7892,
      "aangeklaagd": 7893,
      "aangekleed": 7894,
      "aangekocht": 7895,
      "aangekomen": 7896,
      "aangekondigd": 7897,
      "aangelegd": 7898,
      "aangelegenhe": 7899,
      "aangemeld": 7900,
      "aangemerkt": 7901,
      "aangemoedigd": 7902,
      "aangenaam": 7903,
      "aangename": 7904,
      "aangepakt": 7905,
      "aangepast": 7906,
      "aangepaste": 7907,
      "aangeraakt": 7908,
      "aangereden": 7909,
      "aangereikt": 7910,
      "aangericht": 7911,
      "aangeschaft": 7912,
      "aangescherpt": 7913,
      "aangesloten": 7914,
      "aangespoord": 7915,
      "aangesproken": 7916,
      "aangesteld": 7917,
      "aangestoken": 7918,
      "aangetast": 7919,
      "aangetoond": 7920,
      "aangetroffen": 7921,
      "aangetrokken": 7922,
      "aangevallen": 7923,
      "aangeven": 7924,
      "aangevoerd": 7925,
      "aangevraagd": 7926,
      "aangevuld": 7927,
      "aangewakkerd": 7928,
      "aangewend": 7929,
      "aangewezen": 7930,
      "aangezet": 7931,
      "aangezien": 7932,
      "aangifte": 7933,
      "aangrenzend": 7934,
      "aangrijpend": 7935,
      "aanhang": 7936,
      "aanhanger": 7937,
      "aanhangsel": 7938,
      "aanhouden": 7939,
      "aanhoudende": 7940,
      "aanhouding": 7941,
      "aankijken": 7942,
      "aanklacht": 7943,
      "aanklager": 7944,
      "aanknopingspunt": 7945,
      "aankomen": 7946,
      "aankomst": 7947,
      "aankondig": 7948,
      "aankondigde": 7949,
      "aankondiging": 7950,
      "aankoop": 7951,
      "aankopen": 7952,
      "aankwam": 7953,
      "aanleg": 7954,
      "aanleiding": 7955,
      "aanlokkelijk": 7956,
      "aanloop": 7957,
      "aanmelden": 7958,
      "aanmerkelijk": 7959,
      "aanmerking": 7960,
      "aanmoedigen": 7961,
      "aanmoediging": 7962,
      "aannam": 7963,
      "aannemelijk": 7964,
      "aannemen": 7965,
      "aannemer": 7966,
      "aanpak": 7967,
      "aanpakken": 7968,
      "aanpalend": 7969,
      "aanpassen": 7970,
      "aanpassing": 7971,
      "aanraakte": 7972,
      "aanraken": 7973,
      "aanraking": 7974,
      "aanranding": 7975,
      "aanrecht": 7976,
      "aanrijding": 7977,
      "aanschaf": 7978,
      "aanschouw": 7979,
      "aanslag": 7980,
      "aanslagen": 7981,
      "aansluit": 7982,
      "aansluiten": 7983,
      "aansluiting": 7984,
      "aansporing": 7985,
      "aansprak": 7986,
      "aansprakelijk": 7987,
      "aanspreken": 7988,
      "aanstaande": 7989,
      "aanstaarde": 7990,
      "aanstekelijk": 7991,
      "aansteker": 7992,
      "aanstelling": 7993,
      "aanstormend": 7994,
      "aantal": 7995,
      "aantallen": 7996,
      "aantast": 7997,
      "aantekeningen": 7998,
      "aantonen": 7999,
      "aantoonbaar": 8000,
      "aantrad": 8001,
      "aantreden": 8002,
      "aantrekkelijk": 8003,
      "aantrekkelijke": 8004,
      "aantrekkelijker": 8005,
      "aantrekken": 8006,
      "aantrof": 8007,
      "aanvaard": 8008,
      "aanvaardbaar": 8009,
      "aanvaardde": 8010,
      "aanvaarden": 8011,
      "aanval": 8012,
      "aanvallen": 8013,
      "aanvallende": 8014,
      "aanvaller": 8015,
      "aanvallers": 8016,
      "aanvang": 8017,
      "aanvankelijk": 8018,
      "aanvaring": 8019,
      "aanvoelde": 8020,
      "aanvoelen": 8021,
      "aanvoer": 8022,
      "aanvoerder": 8023,
      "aanvraag": 8024,
      "aanvragen": 8025,
      "aanvrager": 8026,
      "aanvullend": 8027,
      "aanvulling": 8028,
      "aanwezig": 8029,
      "aanwezige": 8030,
      "aanwezigheid": 8031,
      "aanwijzen": 8032,
      "aanwijzing": 8033,
      "aanwinst": 8034,
      "aanzet": 8035,
      "aanzetten": 8036,
      "aanzien": 8037,
      "aanzienlijk": 8038,
      "aanzienlijke": 8039,
      "aap": 8040,
      "aard": 8041,
      "aardappel": 8042,
      "aardappelen": 8043,
      "aardbeien": 8044,
      "aardbeving": 8045,
      "aarde": 8046,
      "aardewerk": 8047,
      "aardgas": 8048,
      "aardig": 8049,
      "aardige": 8050,
      "aardse": 8051,
      "aarts": 8052,
      "aartsbisdom": 8053,
      "aartsbisschop": 8054,
      "aartsriva": 8055,
      "aarzel": 8056,
      "aarzelde": 8057,
      "aarzelen": 8058,
      "aarzelend": 8059,
      "aarzeling": 8060,
      "ab": 8061,
      "abdij": 8062,
      "abnormaal": 8063,
      "abonnee": 8064,
      "abonnees": 8065,
      "abonnement": 8066,
      "abortus": 8067,
      "about": 8068,
      "abrupt": 8069,
      "absolute": 8070,
      "absoluut": 8071,
      "abstract": 8072,
      "abstracte": 8073,
      "absurd": 8074,
      "abt": 8075,
      "ac": 8076,
      "academic": 8077,
      "academie": 8078,
      "academisch": 8079,
      "academische": 8080,
      "acc": 8081,
      "accent": 8082,
      "acceptabel": 8083,
      "acceptatie": 8084,
      "accepteer": 8085,
      "accepteerde": 8086,
      "accepteren": 8087,
      "access": 8088,
      "accordeon": 8089,
      "account": 8090,
      "accountant": 8091,
      "accountants": 8092,
      "accu": 8093,
      "ach": 8094,
      "achillespees": 8095,
      "acht": 8096,
      "achtbaan": 8097,
      "achteloos": 8098,
      "achtentwintig": 8099,
      "achter": 8100,
      "achteraan": 8101,
      "achteraf": 8102,
      "achterban": 8103,
      "achterbank": 8104,
      "achterblijven": 8105,
      "achterdeur": 8106,
      "achterdocht": 8107,
      "achterdochtig": 8108,
      "achtereen": 8109,
      "achtergebleven": 8110,
      "achtergelaten": 8111,
      "achtergrond": 8112,
      "achterhaald": 8113,
      "achterhale": 8114,
      "achterhoede": 8115,
      "achterhoofd": 8116,
      "achterin": 8117,
      "achterkant": 8118,
      "achterlaten": 8119,
      "achterliet": 8120,
      "achterliggend": 8121,
      "achterlijk": 8122,
      "achterna": 8123,
      "achternaam": 8124,
      "achterom": 8125,
      "achterop": 8126,
      "achterover": 8127,
      "achterstallig": 8128,
      "achterstand": 8129,
      "achterste": 8130,
      "achtertuin": 8131,
      "achteruit": 8132,
      "achteruitgang": 8133,
      "achtervolgd": 8134,
      "achtervolgen": 8135,
      "achtervolger": 8136,
      "achtervolging": 8137,
      "achterwaarts": 8138,
      "achterwege": 8139,
      "achterzijde": 8140,
      "achthonderd": 8141,
      "achtige": 8142,
      "achtste": 8143,
      "achtte": 8144,
      "achttien": 8145,
      "achttiende": 8146,
      "achttienjarige": 8147,
      "acquisitie": 8148,
      "act": 8149,
      "acteer": 8150,
      "acteren": 8151,
      "acteur": 8152,
      "acteurs": 8153,
      "actie": 8154,
      "actief": 8155,
      "actiefilm": 8156,
      "actiegroep": 8157,
      "acties": 8158,
      "actieve": 8159,
      "actievoerder": 8160,
      "activa": 8161,
      "activeren": 8162,
      "activist": 8163,
      "activisten": 8164,
      "activiteit": 8165,
      "activiteiten": 8166,
      "actrice": 8167,
      "actualiteit": 8168,
      "actueel": 8169,
      "actuele": 8170,
      "acute": 8171,
      "adapt": 8172,
      "adel": 8173,
      "adelaar": 8174,
      "adellijke": 8175,
      "adem": 8176,
      "adembenemend": 8177,
      "ademde": 8178,
      "ademen": 8179,
      "ademhalen": 8180,
      "ademhaling": 8181,
      "adequaat": 8182,
      "adequate": 8183,
      "aderen": 8184,
      "adjudant": 8185,
      "adjunct": 8186,
      "administratie": 8187,
      "administratief": 8188,
      "administratieve": 8189,
      "admiraal": 8190,
      "adolescent": 8191,
      "adopter": 8192,
      "adoptie": 8193,
      "adrenaline": 8194,
      "adres": 8195,
      "adressen": 8196,
      "adv": 8197,
      "adverteerders": 8198,
      "advertentie": 8199,
      "advertenties": 8200,
      "advies": 8201,
      "adviesbureau": 8202,
      "adviezen": 8203,
      "adviseer": 8204,
      "adviseerde": 8205,
      "adviseren": 8206,
      "adviseur": 8207,
      "adviseurs": 8208,
      "advocaat": 8209,
      "advocat": 8210,
      "advocaten": 8211,
      "aero": 8212,
      "af": 8213,
      "afbeelding": 8214,
      "afbeeldingen": 8215,
      "afbraak": 8216,
      "afbreken": 8217,
      "afdalen": 8218,
      "afdaling": 8219,
      "afdeling": 8220,
      "afdoend": 8221,
      "afdwingen": 8222,
      "affaire": 8223,
      "affiche": 8224,
      "affiches": 8225,
      "afgaan": 8226,
      "afge": 8227,
      "afgebakend": 8228,
      "afgebeeld": 8229,
      "afgebroken": 8230,
      "afgedankt": 8231,
      "afgedekt": 8232,
      "afgedrukt": 8233,
      "afgehandeld": 8234,
      "afgekeurd": 8235,
      "afgekondigd": 8236,
      "afgekort": 8237,
      "afgelast": 8238,
      "afgelegd": 8239,
      "afgelegen": 8240,
      "afgeleid": 8241,
      "afgeleverd": 8242,
      "afgelopen": 8243,
      "afgelost": 8244,
      "afgeluisterd": 8245,
      "afgemaakt": 8246,
      "afgerond": 8247,
      "afgeschaft": 8248,
      "afgescheiden": 8249,
      "afgeschermd": 8250,
      "afgesloten": 8251,
      "afgespeeld": 8252,
      "afgestemd": 8253,
      "afgestudeerd": 8254,
      "afgevaardigde": 8255,
      "afgevaardigden": 8256,
      "afgeven": 8257,
      "afgevoerd": 8258,
      "afgevuurd": 8259,
      "afgewend": 8260,
      "afgewerkt": 8261,
      "afgewezen": 8262,
      "afgewisseld": 8263,
      "afgezant": 8264,
      "afgezet": 8265,
      "afgezwakt": 8266,
      "afgrijselijk": 8267,
      "afgrond": 8268,
      "afgunst": 8269,
      "afhaken": 8270,
      "afhandeling": 8271,
      "afhangen": 8272,
      "afhankelijk": 8273,
      "afkeer": 8274,
      "afkeur": 8275,
      "afkeurend": 8276,
      "afkeuring": 8277,
      "afkick": 8278,
      "afkoelen": 8279,
      "afkomst": 8280,
      "afkomstig": 8281,
      "afkorting": 8282,
      "aflatend": 8283,
      "afleiden": 8284,
      "afleiding": 8285,
      "aflever": 8286,
      "aflevering": 8287,
      "afleveringen": 8288,
      "afliep": 8289,
      "afloop": 8290,
      "aflopen": 8291,
      "aflossing": 8292,
      "afluister": 8293,
      "afmeting": 8294,
      "afname": 8295,
      "afnemen": 8296,
      "afpersing": 8297,
      "afreken": 8298,
      "afrekening": 8299,
      "afronden": 8300,
      "afronding": 8301,
      "afschaffing": 8302,
      "afscheid": 8303,
      "afscheiding": 8304,
      "afscheids": 8305,
      "afschrikwekkend": 8306,
      "afschuw": 8307,
      "afschuwelijk": 8308,
      "afschuwelijke": 8309,
      "afslag": 8310,
      "afsluit": 8311,
      "afsluiten": 8312,
      "afsluiting": 8313,
      "afspeelde": 8314,
      "afspeelt": 8315,
      "afspiegeling": 8316,
      "afsplitsing": 8317,
      "afspraak": 8318,
      "afspraakje": 8319,
      "afspraken": 8320,
      "afstaan": 8321,
      "afstammeling": 8322,
      "afstand": 8323,
      "afstandelijk": 8324,
      "afstanden": 8325,
      "afstandsbedien": 8326,
      "afstuderen": 8327,
      "aftrap": 8328,
      "aftreden": 8329,
      "aftrek": 8330,
      "afval": 8331,
      "afvallige": 8332,
      "afvoer": 8333,
      "afvragen": 8334,
      "afvroeg": 8335,
      "afwachten": 8336,
      "afwachtend": 8337,
      "afwachting": 8338,
      "afwas": 8339,
      "afweer": 8340,
      "afweging": 8341,
      "afwendde": 8342,
      "afwenden": 8343,
      "afwerend": 8344,
      "afwerking": 8345,
      "afwezig": 8346,
      "afwijkende": 8347,
      "afwijking": 8348,
      "afwijzing": 8349,
      "afwikkeling": 8350,
      "afwisselend": 8351,
      "afwisseling": 8352,
      "afzet": 8353,
      "afzetten": 8354,
      "afzetting": 8355,
      "afzien": 8356,
      "afzijdig": 8357,
      "afzondering": 8358,
      "afzonderlijk": 8359,
      "again": 8360,
      "agenda": 8361,
      "agent": 8362,
      "agenten": 8363,
      "agrarisch": 8364,
      "agressie": 8365,
      "agressief": 8366,
      "agressieve": 8367,
      "aids": 8368,
      "airbag": 8369,
      "airco": 8370,
      "airconditioning": 8371,
      "akelig": 8372,
      "akelige": 8373,
      "akkers": 8374,
      "akkoord": 8375,
      "akoestisch": 8376,
      "aktetas": 8377,
      "al": 8378,
      "alarm": 8379,
      "alarmerend": 8380,
      "album": 8381,
      "albums": 8382,
      "alcohol": 8383,
      "alert": 8384,
      "alfabet": 8385,
      "alfabetiserings": 8386,
      "algemeen": 8387,
      "algemene": 8388,
      "algoritme": 8389,
      "alias": 8390,
      "alibi": 8391,
      "alimentatie": 8392,
      "alinea": 8393,
      "all": 8394,
      "alle": 8395,
      "allebei": 8396,
      "alledaags": 8397,
      "alledaagse": 8398,
      "alleen": 8399,
      "alleenstaande": 8400,
      "allemaal": 8401,
      "allen": 8402,
      "allengs": 8403,
      "aller": 8404,
      "allerbeste": 8405,
      "allereerst": 8406,
      "allergisch": 8407,
      "allergrootste": 8408,
      "allerhand": 8409,
      "allerlaatste": 8410,
      "allerminst": 8411,
      "alles": 8412,
      "alliantie": 8413,
      "allochtone": 8414,
      "allochtonen": 8415,
      "allochtoon": 8416,
      "allround": 8417,
      "allure": 8418,
      "almachtig": 8419,
      "alom": 8420,
      "als": 8421,
      "alsjeblief": 8422,
      "alsof": 8423,
      "alstublief": 8424,
      "altaar": 8425,
      "alternatief": 8426,
      "alternatieve": 8427,
      "alternatieven": 8428,
      "altijd": 8429,
      "aluminium": 8430,
      "alvast": 8431,
      "alweer": 8432,
      "amandel": 8433,
      "amateur": 8434,
      "amateurs": 8435,
      "amateurvoetbal": 8436,
      "amb": 8437,
      "ambacht": 8438,
      "ambachtelijk": 8439,
      "ambassade": 8440,
      "ambassadeur": 8441,
      "ambiance": 8442,
      "ambitie": 8443,
      "ambities": 8444,
      "ambitieu": 8445,
      "ambitieuze": 8446,
      "ambt": 8447,
      "ambtelijke": 8448,
      "ambtenaar": 8449,
      "ambtenaren": 8450,
      "ambts": 8451,
      "ambtstermijn": 8452,
      "ambulance": 8453,
      "amendement": 8454,
      "ammoniak": 8455,
      "amnestie": 8456,
      "amper": 8457,
      "amulet": 8458,
      "amusant": 8459,
      "amusement": 8460,
      "amuseren": 8461,
      "analist": 8462,
      "analisten": 8463,
      "analog": 8464,
      "analyse": 8465,
      "analyseren": 8466,
      "analytisch": 8467,
      "anarchis": 8468,
      "anato": 8469,
      "and": 8470,
      "ander": 8471,
      "andere": 8472,
      "anderen": 8473,
      "anderhalf": 8474,
      "andermans": 8475,
      "anders": 8476,
      "anekdote": 8477,
      "angel": 8478,
      "angst": 8479,
      "angstaanjagend": 8480,
      "angstig": 8481,
      "angstige": 8482,
      "angstvallig": 8483,
      "animatie": 8484,
      "animatiefilm": 8485,
      "animo": 8486,
      "anker": 8487,
      "annex": 8488,
      "anno": 8489,
      "annu": 8490,
      "annuler": 8491,
      "année": 8492,
      "anoniem": 8493,
      "anonieme": 8494,
      "anonimi": 8495,
      "ansichtkaart": 8496,
      "antenne": 8497,
      "anti": 8498,
      "antibiotica": 8499,
      "antiek": 8500,
      "antieke": 8501,
      "antisemitisch": 8502,
      "antisemitisme": 8503,
      "antropo": 8504,
      "antwoord": 8505,
      "antwoordde": 8506,
      "antwoorden": 8507,
      "apart": 8508,
      "aparte": 8509,
      "apartheid": 8510,
      "apathi": 8511,
      "ape": 8512,
      "apen": 8513,
      "apostel": 8514,
      "apotheek": 8515,
      "apotheker": 8516,
      "app": 8517,
      "apparaat": 8518,
      "apparaten": 8519,
      "apparatuur": 8520,
      "appartement": 8521,
      "appartementen": 8522,
      "appels": 8523,
      "applaus": 8524,
      "appreci": 8525,
      "apr": 8526,
      "april": 8527,
      "aqua": 8528,
      "aquarium": 8529,
      "arbeid": 8530,
      "arbeider": 8531,
      "arbeiders": 8532,
      "arbeids": 8533,
      "arbeidskrachten": 8534,
      "arbeidsmarkt": 8535,
      "arbeidsplaats": 8536,
      "arbiter": 8537,
      "arbitrage": 8538,
      "arbo": 8539,
      "archeolo": 8540,
      "archeologe": 8541,
      "archeologie": 8542,
      "archeologisch": 8543,
      "archi": 8544,
      "archief": 8545,
      "archieven": 8546,
      "archipel": 8547,
      "architect": 8548,
      "architecten": 8549,
      "architectonisch": 8550,
      "architectuur": 8551,
      "arena": 8552,
      "arg": 8553,
      "argument": 8554,
      "argumenten": 8555,
      "argwa": 8556,
      "argwanend": 8557,
      "aristocra": 8558,
      "arm": 8559,
      "armband": 8560,
      "arme": 8561,
      "armen": 8562,
      "armoede": 8563,
      "armoedig": 8564,
      "armzalig": 8565,
      "aroma": 8566,
      "arrange": 8567,
      "arrest": 8568,
      "arrestanten": 8569,
      "arrestatie": 8570,
      "arrestatiebevel": 8571,
      "arresteerde": 8572,
      "arresteren": 8573,
      "arriveer": 8574,
      "arriveerde": 8575,
      "arriveren": 8576,
      "arrogant": 8577,
      "arrondissement": 8578,
      "arsenaa": 8579,
      "art": 8580,
      "artiest": 8581,
      "artiesten": 8582,
      "artikel": 8583,
      "artikelen": 8584,
      "artillerie": 8585,
      "artistiek": 8586,
      "artistieke": 8587,
      "arts": 8588,
      "artsen": 8589,
      "asbak": 8590,
      "asbest": 8591,
      "asfalt": 8592,
      "asiel": 8593,
      "asielzoeker": 8594,
      "asielzoekers": 8595,
      "asocia": 8596,
      "asp": 8597,
      "aspect": 8598,
      "aspecten": 8599,
      "asperge": 8600,
      "aspirant": 8601,
      "assembl": 8602,
      "assisen": 8603,
      "assist": 8604,
      "assistent": 8605,
      "assistentie": 8606,
      "associ": 8607,
      "associatie": 8608,
      "astma": 8609,
      "astro": 8610,
      "astronaut": 8611,
      "astrono": 8612,
      "astronomisch": 8613,
      "atelier": 8614,
      "atheïs": 8615,
      "atlas": 8616,
      "atlete": 8617,
      "atleten": 8618,
      "atletiek": 8619,
      "atmosfeer": 8620,
      "atoom": 8621,
      "atoombom": 8622,
      "attent": 8623,
      "attractie": 8624,
      "au": 8625,
      "audio": 8626,
      "audit": 8627,
      "auditie": 8628,
      "audiëntie": 8629,
      "aug": 8630,
      "augustus": 8631,
      "aura": 8632,
      "aussi": 8633,
      "auteur": 8634,
      "auteurs": 8635,
      "auteursrecht": 8636,
      "authentic": 8637,
      "authentiek": 8638,
      "authentieke": 8639,
      "autisme": 8640,
      "auto": 8641,
      "autobiografie": 8642,
      "autobiografisch": 8643,
      "autochtone": 8644,
      "autofabrikant": 8645,
      "automatisch": 8646,
      "automatisering": 8647,
      "automobiel": 8648,
      "automobilist": 8649,
      "automobilisten": 8650,
      "autono": 8651,
      "autonome": 8652,
      "autonomie": 8653,
      "autootje": 8654,
      "autopsie": 8655,
      "autoritair": 8656,
      "autoriteit": 8657,
      "autosnelweg": 8658,
      "autre": 8659,
      "aux": 8660,
      "avant": 8661,
      "averechts": 8662,
      "avond": 8663,
      "avonden": 8664,
      "avondje": 8665,
      "avonds": 8666,
      "avonturen": 8667,
      "avonturier": 8668,
      "avontuur": 8669,
      "award": 8670,
      "azijn": 8671,
      "ba": 8672,
      "baadde": 8673,
      "baai": 8674,
      "baal": 8675,
      "baan": 8676,
      "baanbrekend": 8677,
      "baantje": 8678,
      "baard": 8679,
      "baarmoeder": 8680,
      "baas": 8681,
      "baasje": 8682,
      "baat": 8683,
      "babbel": 8684,
      "baby": 8685,
      "bachelor": 8686,
      "back": 8687,
      "bacterie": 8688,
      "bacteriën": 8689,
      "bad": 8690,
      "badjas": 8691,
      "badkamer": 8692,
      "badkuip": 8693,
      "badminton": 8694,
      "badplaats": 8695,
      "bagage": 8696,
      "bagger": 8697,
      "bak": 8698,
      "bakboord": 8699,
      "bakje": 8700,
      "bakken": 8701,
      "bakker": 8702,
      "bakkerij": 8703,
      "baksteen": 8704,
      "bakstenen": 8705,
      "bal": 8706,
      "balanceer": 8707,
      "balans": 8708,
      "balie": 8709,
      "balk": 8710,
      "balken": 8711,
      "balkon": 8712,
      "ballad": 8713,
      "ballen": 8714,
      "ballet": 8715,
      "balletje": 8716,
      "ballingschap": 8717,
      "ballon": 8718,
      "ballonnen": 8719,
      "balustrade": 8720,
      "bamboe": 8721,
      "ban": 8722,
      "bananen": 8723,
      "band": 8724,
      "banden": 8725,
      "bandieten": 8726,
      "bandje": 8727,
      "bandleden": 8728,
      "banen": 8729,
      "bang": 8730,
      "banier": 8731,
      "bank": 8732,
      "bankbiljetten": 8733,
      "banken": 8734,
      "bankier": 8735,
      "bankiers": 8736,
      "bankje": 8737,
      "bankrekening": 8738,
      "bankroet": 8739,
      "bar": 8740,
      "barakken": 8741,
      "barbaren": 8742,
      "barbecue": 8743,
      "bariton": 8744,
      "barkeeper": 8745,
      "barmhartig": 8746,
      "barok": 8747,
      "barokke": 8748,
      "baron": 8749,
      "barre": 8750,
      "barricade": 8751,
      "barrière": 8752,
      "barst": 8753,
      "barsten": 8754,
      "barstte": 8755,
      "bas": 8756,
      "basale": 8757,
      "baseer": 8758,
      "baseerde": 8759,
      "baseren": 8760,
      "basis": 8761,
      "basisonderwijs": 8762,
      "basisplaats": 8763,
      "basisscholen": 8764,
      "basisschool": 8765,
      "basisspeler": 8766,
      "basketbal": 8767,
      "basketballer": 8768,
      "bassin": 8769,
      "bassist": 8770,
      "bastaard": 8771,
      "bastion": 8772,
      "bataljon": 8773,
      "baten": 8774,
      "batterij": 8775,
      "batterijen": 8776,
      "be": 8777,
      "beaam": 8778,
      "beaamde": 8779,
      "beangstigend": 8780,
      "beantwoord": 8781,
      "beantwoordde": 8782,
      "beantwoorden": 8783,
      "beat": 8784,
      "beauty": 8785,
      "bebloed": 8786,
      "beboet": 8787,
      "bebost": 8788,
      "bebouwd": 8789,
      "bebouwing": 8790,
      "bed": 8791,
      "bedaard": 8792,
      "bedacht": 8793,
      "bedachtzaam": 8794,
      "bedank": 8795,
      "bedanken": 8796,
      "bedankt": 8797,
      "bedankte": 8798,
      "bedden": 8799,
      "bedeesd": 8800,
      "bedekken": 8801,
      "bedekt": 8802,
      "bedekte": 8803,
      "bedel": 8804,
      "bedelaar": 8805,
      "bedenk": 8806,
      "bedenkelijk": 8807,
      "bedenken": 8808,
      "bedenker": 8809,
      "bedenking": 8810,
      "bedenkt": 8811,
      "bederven": 8812,
      "bedevaart": 8813,
      "bediend": 8814,
      "bediende": 8815,
      "bedienden": 8816,
      "bedienen": 8817,
      "bediening": 8818,
      "bedoel": 8819,
      "bedoeld": 8820,
      "bedoelde": 8821,
      "bedoeling": 8822,
      "bedoelt": 8823,
      "bedolven": 8824,
      "bedompt": 8825,
      "bedraagt": 8826,
      "bedrag": 8827,
      "bedreig": 8828,
      "bedreigd": 8829,
      "bedreigde": 8830,
      "bedreigen": 8831,
      "bedreigend": 8832,
      "bedreiging": 8833,
      "bedreven": 8834,
      "bedrieg": 8835,
      "bedrieglijk": 8836,
      "bedrijf": 8837,
      "bedrijfs": 8838,
      "bedrijfsleider": 8839,
      "bedrijfsleven": 8840,
      "bedrijfstak": 8841,
      "bedrijfsvoering": 8842,
      "bedrijven": 8843,
      "bedrijvig": 8844,
      "bedroefd": 8845,
      "bedroeg": 8846,
      "bedrog": 8847,
      "bedrogen": 8848,
      "bedrukt": 8849,
      "beduidde": 8850,
      "beduidend": 8851,
      "bedwang": 8852,
      "bedwingen": 8853,
      "bedwong": 8854,
      "beefde": 8855,
      "beek": 8856,
      "beeld": 8857,
      "beelden": 8858,
      "beeldhouw": 8859,
      "beeldhouwer": 8860,
      "beeldhouwwerk": 8861,
      "beeldje": 8862,
      "beeldscherm": 8863,
      "beeldvorming": 8864,
      "beeltenis": 8865,
      "been": 8866,
      "beende": 8867,
      "beender": 8868,
      "beer": 8869,
      "beervlinder": 8870,
      "beest": 8871,
      "beesten": 8872,
      "beestje": 8873,
      "beet": 8874,
      "beetje": 8875,
      "befaamde": 8876,
      "begaafd": 8877,
      "begaan": 8878,
      "begaf": 8879,
      "begane": 8880,
      "begeef": 8881,
      "begeer": 8882,
      "begeerte": 8883,
      "begeleid": 8884,
      "begeleidde": 8885,
      "begeleiden": 8886,
      "begeleiding": 8887,
      "begerig": 8888,
      "begeven": 8889,
      "begin": 8890,
      "beginnen": 8891,
      "beginners": 8892,
      "beginsel": 8893,
      "begint": 8894,
      "begon": 8895,
      "begonnen": 8896,
      "begraafplaats": 8897,
      "begrafenis": 8898,
      "begraven": 8899,
      "begrensd": 8900,
      "begrijp": 8901,
      "begrijpelijk": 8902,
      "begrijpen": 8903,
      "begrijpend": 8904,
      "begrijpt": 8905,
      "begrip": 8906,
      "begrippen": 8907,
      "begroe": 8908,
      "begroeid": 8909,
      "begroeiing": 8910,
      "begroet": 8911,
      "begroeten": 8912,
      "begroeting": 8913,
      "begroette": 8914,
      "begroting": 8915,
      "begrotings": 8916,
      "beha": 8917,
      "behaaglijk": 8918,
      "behaald": 8919,
      "behaalde": 8920,
      "behaard": 8921,
      "behage": 8922,
      "behal": 8923,
      "behalve": 8924,
      "behandel": 8925,
      "behandeld": 8926,
      "behandelde": 8927,
      "behandelen": 8928,
      "behandeling": 8929,
      "behandelt": 8930,
      "behang": 8931,
      "behartig": 8932,
      "beheer": 8933,
      "beheerd": 8934,
      "beheerder": 8935,
      "beheersen": 8936,
      "beheerst": 8937,
      "beheerste": 8938,
      "beheert": 8939,
      "behels": 8940,
      "behendig": 8941,
      "beheren": 8942,
      "behield": 8943,
      "behoed": 8944,
      "behoedzaam": 8945,
      "behoefde": 8946,
      "behoeft": 8947,
      "behoefte": 8948,
      "behoeften": 8949,
      "behoeve": 8950,
      "behoor": 8951,
      "behoorde": 8952,
      "behoorlijk": 8953,
      "behoort": 8954,
      "behoren": 8955,
      "behorend": 8956,
      "behoud": 8957,
      "behouden": 8958,
      "behuizing": 8959,
      "behulp": 8960,
      "behulpzaam": 8961,
      "beide": 8962,
      "beiden": 8963,
      "bejaarde": 8964,
      "bejaarden": 8965,
      "bejegen": 8966,
      "bejubeld": 8967,
      "bek": 8968,
      "bekeerd": 8969,
      "bekeken": 8970,
      "bekend": 8971,
      "bekende": 8972,
      "bekendgemaakt": 8973,
      "bekendmaakte": 8974,
      "bekendmaking": 8975,
      "bekendste": 8976,
      "bekennen": 8977,
      "bekent": 8978,
      "bekentenis": 8979,
      "beker": 8980,
      "bekerfinale": 8981,
      "bekertoernooi": 8982,
      "bekijk": 8983,
      "bekijken": 8984,
      "bekken": 8985,
      "beklaag": 8986,
      "beklaagde": 8987,
      "beklede": 8988,
      "bekleed": 8989,
      "bekleedde": 8990,
      "beklemmend": 8991,
      "beklemtoon": 8992,
      "beklimme": 8993,
      "beklimming": 8994,
      "beklom": 8995,
      "beknopt": 8996,
      "bekogeld": 8997,
      "bekom": 8998,
      "bekommer": 8999,
      "bekommerd": 9000,
      "bekoorlijk": 9001,
      "bekostig": 9002,
      "bekrachtigd": 9003,
      "bekritiseerd": 9004,
      "bekroning": 9005,
      "bekroond": 9006,
      "bekwaam": 9007,
      "bekwame": 9008,
      "bel": 9009,
      "belaagd": 9010,
      "belabberd": 9011,
      "belachelijk": 9012,
      "beladen": 9013,
      "belager": 9014,
      "beland": 9015,
      "belandde": 9016,
      "belang": 9017,
      "belangen": 9018,
      "belanghebbende": 9019,
      "belangrijk": 9020,
      "belangrijke": 9021,
      "belangrijker": 9022,
      "belangrijkste": 9023,
      "belangstellend": 9024,
      "belangstelling": 9025,
      "belangwekkend": 9026,
      "belast": 9027,
      "belasting": 9028,
      "belastingdienst": 9029,
      "belastingen": 9030,
      "belastingvrij": 9031,
      "belde": 9032,
      "beledigd": 9033,
      "beledigen": 9034,
      "beledigend": 9035,
      "belediging": 9036,
      "beleef": 9037,
      "beleefd": 9038,
      "beleefde": 9039,
      "beleefdheid": 9040,
      "beleg": 9041,
      "belegd": 9042,
      "belegerd": 9043,
      "belegering": 9044,
      "beleggen": 9045,
      "belegger": 9046,
      "beleggers": 9047,
      "belegging": 9048,
      "beleggings": 9049,
      "beleggingsfonds": 9050,
      "beleid": 9051,
      "beleids": 9052,
      "beleidsmaker": 9053,
      "belemmer": 9054,
      "belemmerd": 9055,
      "belemmering": 9056,
      "belette": 9057,
      "beleven": 9058,
      "beleving": 9059,
      "belga": 9060,
      "belicht": 9061,
      "believ": 9062,
      "bellen": 9063,
      "beller": 9064,
      "belletje": 9065,
      "belofte": 9066,
      "beloften": 9067,
      "belonen": 9068,
      "beloning": 9069,
      "beloof": 9070,
      "beloofd": 9071,
      "beloofde": 9072,
      "belooft": 9073,
      "beloond": 9074,
      "beloven": 9075,
      "belt": 9076,
      "beluisterd": 9077,
      "beluisteren": 9078,
      "bemachtig": 9079,
      "bemand": 9080,
      "bemanning": 9081,
      "bemiddel": 9082,
      "bemiddelaar": 9083,
      "bemiddeling": 9084,
      "bemind": 9085,
      "beminnelijk": 9086,
      "bemoedigend": 9087,
      "bemoei": 9088,
      "bemoeien": 9089,
      "bemoeienis": 9090,
      "bemoeilijkt": 9091,
      "ben": 9092,
      "benadeeld": 9093,
      "benaderd": 9094,
      "benaderen": 9095,
      "benadering": 9096,
      "benadrukken": 9097,
      "benadrukt": 9098,
      "benadrukte": 9099,
[...]
